<unk>	0
<s>	0
</s>	0
<0x00>	0
<0x01>	0
<0x02>	0
<0x03>	0
<0x04>	0
<0x05>	0
<0x06>	0
<0x07>	0
<0x08>	0
<0x09>	0
<0x0A>	0
<0x0B>	0
<0x0C>	0
<0x0D>	0
<0x0E>	0
<0x0F>	0
<0x10>	0
<0x11>	0
<0x12>	0
<0x13>	0
<0x14>	0
<0x15>	0
<0x16>	0
<0x17>	0
<0x18>	0
<0x19>	0
<0x1A>	0
<0x1B>	0
<0x1C>	0
<0x1D>	0
<0x1E>	0
<0x1F>	0
<0x20>	0
<0x21>	0
<0x22>	0
<0x23>	0
<0x24>	0
<0x25>	0
<0x26>	0
<0x27>	0
<0x28>	0
<0x29>	0
<0x2A>	0
<0x2B>	0
<0x2C>	0
<0x2D>	0
<0x2E>	0
<0x2F>	0
<0x30>	0
<0x31>	0
<0x32>	0
<0x33>	0
<0x34>	0
<0x35>	0
<0x36>	0
<0x37>	0
<0x38>	0
<0x39>	0
<0x3A>	0
<0x3B>	0
<0x3C>	0
<0x3D>	0
<0x3E>	0
<0x3F>	0
<0x40>	0
<0x41>	0
<0x42>	0
<0x43>	0
<0x44>	0
<0x45>	0
<0x46>	0
<0x47>	0
<0x48>	0
<0x49>	0
<0x4A>	0
<0x4B>	0
<0x4C>	0
<0x4D>	0
<0x4E>	0
<0x4F>	0
<0x50>	0
<0x51>	0
<0x52>	0
<0x53>	0
<0x54>	0
<0x55>	0
<0x56>	0
<0x57>	0
<0x58>	0
<0x59>	0
<0x5A>	0
<0x5B>	0
<0x5C>	0
<0x5D>	0
<0x5E>	0
<0x5F>	0
<0x60>	0
<0x61>	0
<0x62>	0
<0x63>	0
<0x64>	0
<0x65>	0
<0x66>	0
<0x67>	0
<0x68>	0
<0x69>	0
<0x6A>	0
<0x6B>	0
<0x6C>	0
<0x6D>	0
<0x6E>	0
<0x6F>	0
<0x70>	0
<0x71>	0
<0x72>	0
<0x73>	0
<0x74>	0
<0x75>	0
<0x76>	0
<0x77>	0
<0x78>	0
<0x79>	0
<0x7A>	0
<0x7B>	0
<0x7C>	0
<0x7D>	0
<0x7E>	0
<0x7F>	0
<0x80>	0
<0x81>	0
<0x82>	0
<0x83>	0
<0x84>	0
<0x85>	0
<0x86>	0
<0x87>	0
<0x88>	0
<0x89>	0
<0x8A>	0
<0x8B>	0
<0x8C>	0
<0x8D>	0
<0x8E>	0
<0x8F>	0
<0x90>	0
<0x91>	0
<0x92>	0
<0x93>	0
<0x94>	0
<0x95>	0
<0x96>	0
<0x97>	0
<0x98>	0
<0x99>	0
<0x9A>	0
<0x9B>	0
<0x9C>	0
<0x9D>	0
<0x9E>	0
<0x9F>	0
<0xA0>	0
<0xA1>	0
<0xA2>	0
<0xA3>	0
<0xA4>	0
<0xA5>	0
<0xA6>	0
<0xA7>	0
<0xA8>	0
<0xA9>	0
<0xAA>	0
<0xAB>	0
<0xAC>	0
<0xAD>	0
<0xAE>	0
<0xAF>	0
<0xB0>	0
<0xB1>	0
<0xB2>	0
<0xB3>	0
<0xB4>	0
<0xB5>	0
<0xB6>	0
<0xB7>	0
<0xB8>	0
<0xB9>	0
<0xBA>	0
<0xBB>	0
<0xBC>	0
<0xBD>	0
<0xBE>	0
<0xBF>	0
<0xC0>	0
<0xC1>	0
<0xC2>	0
<0xC3>	0
<0xC4>	0
<0xC5>	0
<0xC6>	0
<0xC7>	0
<0xC8>	0
<0xC9>	0
<0xCA>	0
<0xCB>	0
<0xCC>	0
<0xCD>	0
<0xCE>	0
<0xCF>	0
<0xD0>	0
<0xD1>	0
<0xD2>	0
<0xD3>	0
<0xD4>	0
<0xD5>	0
<0xD6>	0
<0xD7>	0
<0xD8>	0
<0xD9>	0
<0xDA>	0
<0xDB>	0
<0xDC>	0
<0xDD>	0
<0xDE>	0
<0xDF>	0
<0xE0>	0
<0xE1>	0
<0xE2>	0
<0xE3>	0
<0xE4>	0
<0xE5>	0
<0xE6>	0
<0xE7>	0
<0xE8>	0
<0xE9>	0
<0xEA>	0
<0xEB>	0
<0xEC>	0
<0xED>	0
<0xEE>	0
<0xEF>	0
<0xF0>	0
<0xF1>	0
<0xF2>	0
<0xF3>	0
<0xF4>	0
<0xF5>	0
<0xF6>	0
<0xF7>	0
<0xF8>	0
<0xF9>	0
<0xFA>	0
<0xFB>	0
<0xFC>	0
<0xFD>	0
<0xFE>	0
<0xFF>	0
▁t	-0
he	-1
▁a	-2
ou	-3
▁s	-4
▁m	-5
▁w	-6
in	-7
re	-8
ha	-9
▁the	-10
nd	-11
▁b	-12
is	-13
or	-14
▁f	-15
▁I	-16
er	-17
ll	-18
it	-19
on	-20
▁d	-21
▁c	-22
▁n	-23
▁l	-24
▁y	-25
es	-26
en	-27
▁th	-28
ar	-29
▁h	-30
▁o	-31
▁to	-32
▁you	-33
▁p	-34
▁T	-35
hat	-36
▁A	-37
▁he	-38
st	-39
ve	-40
ot	-41
▁and	-42
ow	-43
ing	-44
▁of	-45
an	-46
om	-47
▁g	-48
at	-49
▁be	-50
▁W	-51
se	-52
▁my	-53
▁in	-54
▁ha	-55
ce	-56
le	-57
ay	-58
ld	-59
ir	-60
et	-61
ed	-62
ut	-63
▁B	-64
▁me	-65
im	-66
▁S	-67
ith	-68
▁not	-69
▁H	-70
ch	-71
▁that	-72
▁is	-73
▁M	-74
gh	-75
▁And	-76
▁for	-77
▁u	-78
ke	-79
▁C	-80
▁we	-81
our	-82
oo	-83
ill	-84
▁e	-85
▁with	-86
her	-87
▁it	-88
ent	-89
▁your	-90
ad	-91
ri	-92
▁O	-93
▁thou	-94
▁st	-95
▁k	-96
▁L	-97
ome	-98
▁his	-99
▁F	-100
▁G	-101
ght	-102
EN	-103
ord	-104
▁re	-105
id	-106
ra	-107
▁The	-108
▁have	-109
▁him	-110
IN	-111
ly	-112
▁li	-113
as	-114
▁P	-115
▁this	-116
ur	-117
IO	-118
al	-119
▁so	-120
▁as	-121
▁de	-122
▁on	-123
▁R	-124
ore	-125
ro	-126
▁N	-127
hi	-128
ould	-129
ood	-130
AR	-131
ck	-132
ain	-133
ver	-134
▁Y	-135
est	-136
▁sha	-137
▁thy	-138
ess	-139
▁will	-140
▁do	-141
ea	-142
▁no	-143
am	-144
▁E	-145
▁but	-146
▁D	-147
us	-148
▁se	-149
US	-150
if	-151
▁'	-152
ge	-153
▁all	-154
and	-155
▁Th	-156
▁su	-157
ake	-158
▁To	-159
▁her	-160
ru	-161
ion	-162
▁an	-163
▁K	-164
▁lo	-165
ard	-166
ter	-167
han	-168
▁sp	-169
ell	-170
ear	-171
▁thee	-172
▁fa	-173
▁shall	-174
▁our	-175
▁by	-176
th	-177
UC	-178
▁are	-179
il	-180
ING	-181
▁ne	-182
▁kn	-183
rom	-184
ho	-185
▁v	-186
▁That	-187
ER	-188
OR	-189
ast	-190
ct	-191
ous	-192
▁what	-193
▁sh	-194
ight	-195
ul	-196
ET	-197
ant	-198
▁up	-199
sel	-200
▁good	-201
qu	-202
▁But	-203
art	-204
row	-205
ath	-206
ine	-207
▁com	-208
▁mu	-209
▁lord	-210
hich	-211
nt	-212
▁pr	-213
▁man	-214
▁at	-215
▁V	-216
one	-217
▁whe	-218
▁con	-219
▁What	-220
▁am	-221
end	-222
ic	-223
ES	-224
ble	-225
ry	-226
ong	-227
▁from	-228
ie	-229
▁she	-230
▁bl	-231
ive	-232
ven	-233
▁go	-234
▁For	-235
▁more	-236
▁them	-237
em	-238
▁was	-239
IC	-240
out	-241
au	-242
▁sir	-243
other	-244
are	-245
oth	-246
ol	-247
▁if	-248
▁He	-249
▁now	-250
▁hat	-251
▁there	-252
▁would	-253
AN	-254
ost	-255
▁know	-256
▁can	-257
LO	-258
ind	-259
ers	-260
IUS	-261
ep	-262
self	-263
ARD	-264
▁say	-265
▁KING	-266
ather	-267
ond	-268
ate	-269
res	-270
fe	-271
▁sw	-272
▁here	-273
▁love	-274
▁their	-275
▁My	-276
▁or	-277
▁than	-278
▁br	-279
pp	-280
--	-281
▁us	-282
▁king	-283
▁they	-284
▁then	-285
all	-286
▁ar	-287
od	-288
▁let	-289
▁un	-290
ig	-291
▁wor	-292
ure	-293
ink	-294
▁may	-295
hy	-296
ame	-297
▁come	-298
fore	-299
ort	-300
▁As	-301
▁qu	-302
ook	-303
▁well	-304
el	-305
ish	-306
LI	-307
▁Whe	-308
▁j	-309
KE	-310
ves	-311
▁one	-312
▁hath	-313
irst	-314
▁make	-315
▁You	-316
▁gra	-317
reat	-318
ak	-319
ng	-320
▁must	-321
gain	-322
ound	-323
▁were	-324
▁ho	-325
▁see	-326
▁should	-327
▁like	-328
ci	-329
▁pro	-330
ue	-331
eak	-332
TIO	-333
▁sa	-334
ity	-335
▁pl	-336
▁mad	-337
▁father	-338
▁had	-339
um	-340
▁did	-341
▁upon	-342
OM	-343
ime	-344
pe	-345
▁too	-346
ice	-347
ON	-348
▁J	-349
▁dis	-350
ence	-351
▁death	-352
ward	-353
▁which	-354
▁en	-355
▁If	-356
ose	-357
own	-358
▁speak	-359
▁po	-360
▁when	-361
ful	-362
▁out	-363
▁fri	-364
▁how	-365
entle	-366
io	-367
pt	-368
un	-369
ICH	-370
▁again	-371
▁RICH	-372
▁tru	-373
OL	-374
de	-375
UKE	-376
▁DUKE	-377
man	-378
▁heart	-379
▁yet	-380
ick	-381
▁hand	-382
very	-383
▁With	-384
▁RICHARD	-385
▁who	-386
ENTIO	-387
▁Thou	-388
ign	-389
▁We	-390
▁some	-391
ance	-392
▁Which	-393
▁hon	-394
▁mar	-395
nce	-396
▁r	-397
ies	-398
▁In	-399
▁son	-400
ire	-401
▁off	-402
▁mine	-403
ist	-404
INC	-405
▁al	-406
ince	-407
har	-408
orn	-409
ack	-410
▁Why	-411
wn	-412
▁Of	-413
▁God	-414
EL	-415
▁hea	-416
▁such	-417
▁time	-418
oy	-419
▁First	-420
▁hear	-421
▁So	-422
ness	-423
▁brother	-424
ec	-425
▁these	-426
▁Cl	-427
▁blood	-428
▁ab	-429
▁ex	-430
ither	-431
▁give	-432
UE	-433
▁fo	-434
▁Is	-435
▁No	-436
▁day	-437
▁ear	-438
▁ro	-439
▁look	-440
▁think	-441
▁II	-442
▁How	-443
▁life	-444
▁tell	-445
EST	-446
ise	-447
▁ey	-448
AB	-449
eet	-450
▁where	-451
UCH	-452
▁take	-453
▁word	-454
oul	-455
▁friend	-456
▁Q	-457
ther	-458
▁This	-459
ag	-460
age	-461
LOUC	-462
▁des	-463
ESTER	-464
▁GLOUC	-465
▁GLOUCESTER	-466
ef	-467
een	-468
erv	-469
▁Come	-470
ady	-471
ust	-472
rown	-473
▁gentle	-474
ings	-475
▁Lord	-476
▁U	-477
▁ri	-478
urse	-479
ave	-480
RY	-481
ase	-482
▁Rome	-483
tis	-484
UEEN	-485
▁art	-486
▁lea	-487
▁VINC	-488
▁QUEEN	-489
▁VINCENTIO	-490
way	-491
▁OF	-492
▁war	-493
▁most	-494
▁honour	-495
▁fl	-496
▁Mar	-497
▁much	-498
UM	-499
LAN	-500
▁sl	-501
▁Where	-502
AM	-503
urn	-504
▁made	-505
▁tw	-506
ment	-507
▁fear	-508
▁hast	-509
▁Now	-510
▁Who	-511
▁bet	-512
ENRY	-513
aught	-514
▁HENRY	-515
▁cou	-516
▁great	-517
▁Be	-518
ber	-519
not	-520
▁bre	-521
ved	-522
▁never	-523
▁new	-524
▁fair	-525
cc	-526
ee	-527
ss	-528
▁af	-529
ower	-530
ap	-531
igh	-532
▁AN	-533
▁men	-534
itt	-535
aster	-536
orrow	-537
▁Your	-538
uke	-539
▁It	-540
iz	-541
ough	-542
ORK	-543
▁YORK	-544
▁any	-545
▁call	-546
▁part	-547
▁Or	-548
▁ra	-549
ation	-550
INIUS	-551
ST	-552
ide	-553
ree	-554
▁ad	-555
▁comm	-556
▁cannot	-557
▁pre	-558
▁true	-559
▁stand	-560
▁heaven	-561
▁PET	-562
▁name	-563
AU	-564
▁been	-565
▁pray	-566
old	-567
▁cl	-568
hing	-569
▁sweet	-570
DW	-571
▁EDW	-572
▁per	-573
▁ple	-574
▁EDWARD	-575
ple	-576
▁GR	-577
,--	-578
▁doth	-579
▁noble	-580
▁wr	-581
ears	-582
▁own	-583
▁LUC	-584
ouse	-585
▁done	-586
▁There	-587
ull	-588
▁tr	-589
▁way	-590
ife	-591
▁head	-592
▁other	-593
RO	-594
aw	-595
▁mean	-596
▁pres	-597
UT	-598
▁Ed	-599
▁bear	-600
red	-601
▁sc	-602
▁nor	-603
AP	-604
EO	-605
▁Ay	-606
OMEO	-607
▁When	-608
▁soul	-609
▁very	-610
▁ROMEO	-611
▁Edward	-612
ass	-613
▁An	-614
ENEN	-615
aint	-616
ving	-617
▁both	-618
▁MENEN	-619
▁night	-620
▁world	-621
▁before	-622
▁MENENIUS	-623
ace	-624
ger	-625
▁By	-626
ause	-627
▁queen	-628
li	-629
▁Let	-630
TH	-631
▁mo	-632
▁chi	-633
aughter	-634
RUCH	-635
▁Here	-636
▁Then	-637
RUCHIO	-638
▁PETRUCHIO	-639
able	-640
▁cont	-641
▁dead	-642
▁down	-643
TES	-644
▁app	-645
ite	-646
▁wh	-647
▁ke	-648
▁rem	-649
▁being	-650
per	-651
▁myself	-652
ab	-653
les	-654
▁MAR	-655
▁Than	-656
▁arm	-657
▁beg	-658
ilt	-659
ORIO	-660
LANUS	-661
▁thus	-662
▁CORIO	-663
▁leave	-664
▁CORIOLANUS	-665
▁Sec	-666
▁grace	-667
▁Second	-668
▁unt	-669
ction	-670
ress	-671
▁Nor	-672
▁eyes	-673
▁LE	-674
▁im	-675
▁mother	-676
led	-677
▁ma	-678
less	-679
▁old	-680
ran	-681
land	-682
INA	-683
▁rep	-684
itiz	-685
▁ever	-686
itizen	-687
lo	-688
ps	-689
sw	-690
▁She	-691
▁int	-692
▁live	-693
▁long	-694
▁wife	-695
▁child	-696
▁wom	-697
▁poor	-698
▁friends	-699
▁III	-700
▁away	-701
▁cons	-702
▁Go	-703
▁might	-704
eace	-705
ford	-706
nder	-707
▁Sir	-708
▁die	-709
▁stay	-710
▁comes	-711
ks	-712
oud	-713
atch	-714
wick	-715
▁War	-716
▁many	-717
▁ru	-718
▁rest	-719
▁house	-720
▁pe	-721
▁crown	-722
▁Warwick	-723
ff	-724
ows	-725
▁le	-726
▁cour	-727
Tis	-728
come	-729
ison	-730
▁His	-731
▁ent	-732
▁har	-733
▁thought	-734
LA	-735
SAB	-736
ELLA	-737
▁lie	-738
▁ISAB	-739
▁ISABELLA	-740
erc	-741
ian	-742
iss	-743
uck	-744
RAN	-745
▁set	-746
▁daughter	-747
che	-748
▁Well	-749
▁Romeo	-750
▁nothing	-751
ULI	-752
ors	-753
ONTES	-754
ULIET	-755
atter	-756
▁tong	-757
▁JULIET	-758
▁better	-759
▁LEONTES	-760
▁St	-761
▁VI	-762
▁Nay	-763
ittle	-764
▁gone	-765
▁prince	-766
rant	-767
AD	-768
ADY	-769
int	-770
ought	-771
▁LADY	-772
AL	-773
CE	-774
me	-775
ENCE	-776
well	-777
▁tri	-778
ied	-779
▁Pro	-780
▁keep	-781
▁news	-782
os	-783
▁res	-784
▁sle	-785
▁wit	-786
▁best	-787
▁against	-788
ces	-789
for	-790
hall	-791
ious	-792
▁Serv	-793
▁those	-794
ier	-795
ool	-796
hard	-797
▁SIC	-798
▁acc	-799
▁gri	-800
▁comp	-801
▁hence	-802
▁little	-803
▁Citizen	-804
▁SICINIUS	-805
▁Not	-806
▁hour	-807
▁lords	-808
▁thing	-809
une	-810
akes	-811
▁put	-812
ardon	-813
▁face	-814
lse	-815
ret	-816
sed	-817
ult	-818
▁On	-819
llow	-820
▁end	-821
▁kind	-822
EY	-823
ft	-824
▁two	-825
▁still	-826
▁young	-827
ont	-828
ork	-829
ield	-830
▁pri	-831
▁himself	-832
ud	-833
alk	-834
▁Thy	-835
▁pur	-836
▁LUCIO	-837
▁power	-838
ale	-839
ert	-840
ins	-841
▁IV	-842
▁Ric	-843
▁cha	-844
▁Richard	-845
▁CL	-846
▁sub	-847
▁count	-848
▁therefore	-849
TI	-850
cl	-851
ew	-852
▁gu	-853
ried	-854
cious	-855
iness	-856
▁dear	-857
▁else	-858
▁unto	-859
▁first	-860
▁peace	-861
▁BR	-862
▁sm	-863
ason	-864
hile	-865
▁Have	-866
▁Will	-867
▁duke	-868
▁till	-869
▁could	-870
ail	-871
ect	-872
ile	-873
uty	-874
▁co	-875
▁hus	-876
▁tra	-877
▁back	-878
▁words	-879
▁though	-880
ETH	-881
LIZ	-882
▁bid	-883
▁dre	-884
▁tre	-885
ABETH	-886
▁ELIZ	-887
▁York	-888
▁fell	-889
▁find	-890
▁need	-891
▁earth	-892
▁tongue	-893
▁ELIZABETH	-894
ius	-895
yal	-896
band	-897
ople	-898
▁lady	-899
▁thine	-900
ty	-901
IAN	-902
men	-903
eech	-904
orse	-905
▁bra	-906
▁hel	-907
▁home	-908
▁hope	-909
▁seem	-910
▁forth	-911
ark	-912
eth	-913
ray	-914
enry	-915
▁Yet	-916
▁high	-917
▁Henry	-918
▁husband	-919
vere	-920
▁Good	-921
▁right	-922
get	-923
▁chan	-924
tw	-925
ARW	-926
ICK	-927
uth	-928
▁ban	-929
▁WARW	-930
▁mind	-931
▁people	-932
▁WARWICK	-933
ds	-934
ix	-935
AST	-936
ach	-937
hip	-938
rer	-939
▁Do	-940
▁All	-941
▁che	-942
ister	-943
▁char	-944
▁conf	-945
▁show	-946
▁Shall	-947
ged	-948
▁bri	-949
▁hands	-950
HAM	-951
fort	-952
▁imp	-953
▁joy	-954
▁why	-955
▁Nurse	-956
▁cause	-957
▁master	-958
UL	-959
▁gl	-960
APUL	-961
▁law	-962
▁They	-963
▁mist	-964
▁none	-965
▁once	-966
▁said	-967
▁serv	-968
APULET	-969
▁CAPULET	-970
▁fort	-971
▁every	-972
GE	-973
IL	-974
MIO	-975
ren	-976
▁bod	-977
ousin	-978
▁bring	-979
RI	-980
bt	-981
▁dou	-982
UCK	-983
eed	-984
UTUS	-985
ates	-986
▁BUCK	-987
▁pass	-988
INGHAM	-989
▁BRUTUS	-990
▁please	-991
▁BUCKINGHAM	-992
lt	-993
BRO	-994
ESS	-995
iet	-996
ird	-997
▁BOL	-998
BROKE	-999
RANIO	-1000
▁From	-1001
▁light	-1002
▁BOLING	-1003
▁TRANIO	-1004
▁BOLINGBROKE	-1005
eel	-1006
▁wo	-1007
swer	-1008
vost	-1009
▁bes	-1010
▁nat	-1011
▁thr	-1012
▁royal	-1013
▁tears	-1014
▁whose	-1015
▁present	-1016
mb	-1017
ary	-1018
cle	-1019
its	-1020
▁Our	-1021
▁boy	-1022
▁came	-1023
▁just	-1024
▁since	-1025
lf	-1026
vy	-1027
ock	-1028
ory	-1029
roke	-1030
▁dev	-1031
▁full	-1032
▁after	-1033
▁heard	-1034
▁under	-1035
▁wrong	-1036
▁pardon	-1037
NE	-1038
GAR	-1039
pose	-1040
GARET	-1041
▁happ	-1042
▁land	-1043
▁place	-1044
▁MARGARET	-1045
ATH	-1046
ens	-1047
AMIL	-1048
▁ere	-1049
▁mis	-1050
▁King	-1051
▁last	-1052
▁state	-1053
sand	-1054
▁care	-1055
▁hold	-1056
▁kill	-1057
▁meet	-1058
▁sorrow	-1059
ORD	-1060
GELO	-1061
cent	-1062
esty	-1063
▁GRE	-1064
▁eye	-1065
ition	-1066
▁help	-1067
▁whom	-1068
▁ANGELO	-1069
▁thousand	-1070
▁Eng	-1071
▁fal	-1072
ARINA	-1073
▁less	-1074
arence	-1075
▁answer	-1076
▁follow	-1077
SC	-1078
irt	-1079
▁Sh	-1080
▁ch	-1081
cius	-1082
▁bus	-1083
▁far	-1084
▁pat	-1085
▁sun	-1086
ceive	-1087
▁KATH	-1088
▁enem	-1089
▁fool	-1090
▁weep	-1091
selves	-1092
▁about	-1093
▁shame	-1094
▁hither	-1095
▁Clarence	-1096
▁KATHARINA	-1097
iol	-1098
urde	-1099
▁fall	-1100
▁maid	-1101
▁Marcius	-1102
▁gentleman	-1103
day	-1104
▁ob	-1105
asure	-1106
▁into	-1107
▁Un	-1108
▁Up	-1109
ALUS	-1110
▁ESC	-1111
▁coun	-1112
▁hate	-1113
▁court	-1114
▁grief	-1115
▁makes	-1116
▁cousin	-1117
▁ESCALUS	-1118
▁gracious	-1119
air	-1120
▁Al	-1121
imes	-1122
ject	-1123
▁stri	-1124
▁woman	-1125
iv	-1126
ove	-1127
▁Hath	-1128
▁stre	-1129
▁turn	-1130
▁worth	-1131
▁comfort	-1132
alt	-1133
ild	-1134
ons	-1135
deed	-1136
ices	-1137
ling	-1138
▁bed	-1139
▁hum	-1140
▁DUCH	-1141
▁Duke	-1142
▁dost	-1143
▁talk	-1144
▁wilt	-1145
▁sleep	-1146
urderer	-1147
▁DUCHESS	-1148
ERC	-1149
itor	-1150
ount	-1151
pher	-1152
▁bel	-1153
▁Ange	-1154
▁body	-1155
▁over	-1156
▁i	-1157
ute	-1158
▁bu	-1159
▁Her	-1160
▁att	-1161
▁dra	-1162
▁inst	-1163
morrow	-1164
▁fault	-1165
▁sound	-1166
▁thank	-1167
▁Angelo	-1168
IA	-1169
ised	-1170
▁adv	-1171
ience	-1172
▁play	-1173
AMILLO	-1174
▁false	-1175
▁prove	-1176
▁indeed	-1177
▁CAMILLO	-1178
▁another	-1179
ily	-1180
▁vo	-1181
ieve	-1182
omet	-1183
▁has	-1184
▁ret	-1185
▁ser	-1186
▁use	-1187
▁wel	-1188
▁Even	-1189
▁deed	-1190
▁Would	-1191
▁sword	-1192
▁fellow	-1193
▁Provost	-1194
ENS	-1195
ORT	-1196
ade	-1197
ans	-1198
▁bo	-1199
▁HORT	-1200
▁even	-1201
▁pers	-1202
▁vill	-1203
▁fight	-1204
▁matter	-1205
▁HORTENS	-1206
▁fortune	-1207
RIAR	-1208
hold	-1209
▁Upon	-1210
▁sent	-1211
▁FRIAR	-1212
▁grave	-1213
▁prison	-1214
▁sovere	-1215
▁country	-1216
▁HORTENSIO	-1217
,'	-1218
STA	-1219
eal	-1220
ury	-1221
APTI	-1222
▁Are	-1223
▁cur	-1224
▁dan	-1225
▁merc	-1226
▁send	-1227
▁virt	-1228
▁BAPTI	-1229
▁doubt	-1230
▁years	-1231
▁banish	-1232
▁rather	-1233
▁BAPTISTA	-1234
YC	-1235
mp	-1236
▁Ty	-1237
▁gr	-1238
OLYC	-1239
fect	-1240
ouch	-1241
pect	-1242
▁AUT	-1243
▁COM	-1244
▁ass	-1245
▁hang	-1246
▁want	-1247
▁wish	-1248
OLYCUS	-1249
▁reven	-1250
▁truth	-1251
▁COMINIUS	-1252
▁business	-1253
▁AUTOLYCUS	-1254
.'	-1255
dd	-1256
▁At	-1257
▁CLAR	-1258
▁More	-1259
▁disc	-1260
▁lies	-1261
▁only	-1262
▁Third	-1263
▁shalt	-1264
▁reason	-1265
▁CLARENCE	-1266
ms	-1267
ere	-1268
ior	-1269
pen	-1270
ENES	-1271
▁cra	-1272
▁sea	-1273
pherd	-1274
rance	-1275
▁arms	-1276
▁stra	-1277
▁dream	-1278
▁breath	-1279
▁command	-1280
ENV	-1281
der	-1282
▁gi	-1283
OLIO	-1284
ener	-1285
▁NOR	-1286
▁lay	-1287
▁sec	-1288
▁BENV	-1289
▁prom	-1290
▁Clown	-1291
▁stran	-1292
▁Gentle	-1293
▁BENVOLIO	-1294
SP	-1295
ERO	-1296
ROSP	-1297
UMIO	-1298
▁sen	-1299
▁Take	-1300
▁holy	-1301
▁pity	-1302
▁wind	-1303
▁PROSP	-1304
▁proud	-1305
▁remem	-1306
▁somet	-1307
▁GRUMIO	-1308
▁enough	-1309
▁content	-1310
▁PROSPERO	-1311
ia	-1312
hed	-1313
ken	-1314
▁Su	-1315
ERCU	-1316
ator	-1317
▁Did	-1318
▁bea	-1319
▁Kate	-1320
▁dare	-1321
▁fare	-1322
▁sold	-1323
▁spir	-1324
▁MERCU	-1325
▁lives	-1326
▁swear	-1327
▁three	-1328
▁MERCUTIO	-1329
▁Murderer	-1330
IS	-1331
ike	-1332
eter	-1333
▁dep	-1334
▁get	-1335
▁Were	-1336
▁gods	-1337
▁tend	-1338
▁nature	-1339
▁within	-1340
▁Servant	-1341
▁villain	-1342
▁welcome	-1343
▁LUCENTIO	-1344
OMP	-1345
ars	-1346
ham	-1347
LAND	-1348
▁gre	-1349
▁saw	-1350
ester	-1351
▁POMP	-1352
▁foul	-1353
▁free	-1354
▁kiss	-1355
▁happy	-1356
▁madam	-1357
▁sister	-1358
▁things	-1359
▁mistress	-1360
▁sovereign	-1361
AUL	-1362
any	-1363
apt	-1364
att	-1365
hal	-1366
unt	-1367
ient	-1368
vers	-1369
▁Was	-1370
▁Give	-1371
▁PAUL	-1372
▁city	-1373
▁break	-1374
▁means	-1375
▁yield	-1376
▁PAULINA	-1377
▁beseech	-1378
▁subject	-1379
eft	-1380
ery	-1381
▁aw	-1382
ague	-1383
▁Say	-1384
▁den	-1385
▁mer	-1386
onder	-1387
▁Look	-1388
▁born	-1389
▁oath	-1390
gainst	-1391
gether	-1392
▁horse	-1393
▁yours	-1394
▁GREMIO	-1395
▁POMPEY	-1396
LIX	-1397
NIA	-1398
anc	-1399
▁PO	-1400
OLUM	-1401
balt	-1402
ches	-1403
usic	-1404
▁Com	-1405
▁dru	-1406
▁tem	-1407
▁fire	-1408
▁supp	-1409
▁POLIX	-1410
▁VOLUM	-1411
▁faith	-1412
▁looks	-1413
▁while	-1414
▁wound	-1415
▁bloody	-1416
▁England	-1417
▁VOLUMNIA	-1418
▁yourself	-1419
▁POLIXENES	-1420
ey	-1421
ues	-1422
INGS	-1423
▁car	-1424
▁maj	-1425
▁spo	-1426
▁win	-1427
enger	-1428
▁Fare	-1429
▁HAST	-1430
▁cond	-1431
▁requ	-1432
centio	-1433
ingman	-1434
▁common	-1435
▁traitor	-1436
▁HASTINGS	-1437
▁Servingman	-1438
by	-1439
AUR	-1440
rong	-1441
▁Can	-1442
▁May	-1443
▁def	-1444
▁lam	-1445
▁mon	-1446
broke	-1447
▁Hast	-1448
▁LAUR	-1449
▁mark	-1450
ertain	-1451
▁uncle	-1452
essenger	-1453
▁LAURENCE	-1454
▁children	-1455
BY	-1456
BER	-1457
▁Ah	-1458
form	-1459
▁Jul	-1460
▁met	-1461
▁val	-1462
▁beat	-1463
▁late	-1464
▁left	-1465
▁soon	-1466
▁sight	-1467
▁Tybalt	-1468
▁danger	-1469
▁tender	-1470
▁majesty	-1471
▁Therefore	-1472
FF	-1473
ten	-1474
use	-1475
▁Sp	-1476
LIFF	-1477
THUM	-1478
like	-1479
▁sin	-1480
▁woe	-1481
▁days	-1482
▁foot	-1483
▁save	-1484
▁seen	-1485
▁told	-1486
BERLAND	-1487
▁NORTHUM	-1488
▁warrant	-1489
▁NORTHUMBERLAND	-1490
ID	-1491
TA	-1492
rem	-1493
▁Lu	-1494
▁Pl	-1495
ides	-1496
idow	-1497
▁sad	-1498
▁does	-1499
▁gener	-1500
▁mercy	-1501
▁report	-1502
▁return	-1503
▁farewell	-1504
up	-1505
dom	-1506
hes	-1507
rel	-1508
earn	-1509
ring	-1510
ters	-1511
unes	-1512
▁sit	-1513
▁ANNE	-1514
▁deep	-1515
▁gold	-1516
▁sure	-1517
▁heavy	-1518
▁marry	-1519
▁Though	-1520
▁purpose	-1521
▁through	-1522
▁without	-1523
▁together	-1524
bl	-1525
ca	-1526
ERD	-1527
aim	-1528
ict	-1529
▁PR	-1530
INCE	-1531
cher	-1532
enty	-1533
▁Had	-1534
▁cho	-1535
▁ill	-1536
▁rec	-1537
ments	-1538
▁Clif	-1539
▁Mont	-1540
▁cold	-1541
▁ears	-1542
▁grow	-1543
▁lost	-1544
ignior	-1545
▁deser	-1546
▁nurse	-1547
▁Juliet	-1548
▁PRINCE	-1549
▁person	-1550
▁strange	-1551
▁Clifford	-1552
az	-1553
mer	-1554
ush	-1555
▁MI	-1556
▁Ri	-1557
ains	-1558
ceed	-1559
ours	-1560
ross	-1561
vent	-1562
▁Bol	-1563
▁Cam	-1564
▁Cor	-1565
▁ask	-1566
▁wat	-1567
▁Tell	-1568
▁disp	-1569
▁suff	-1570
▁liege	-1571
▁pluck	-1572
▁times	-1573
▁Boling	-1574
▁spirit	-1575
▁believe	-1576
▁thyself	-1577
▁Bolingbroke	-1578
ets	-1579
ift	-1580
▁Ha	-1581
▁Wh	-1582
▁jo	-1583
ever	-1584
▁One	-1585
▁age	-1586
▁air	-1587
▁sil	-1588
▁Away	-1589
▁Some	-1590
▁heir	-1591
▁loss	-1592
▁says	-1593
▁Whose	-1594
▁learn	-1595
▁point	-1596
▁Should	-1597
▁Signior	-1598
aid	-1599
ced	-1600
ial	-1601
ner	-1602
▁cry	-1603
▁fly	-1604
▁past	-1605
▁devil	-1606
▁friar	-1607
▁haste	-1608
▁trust	-1609
▁Coriol	-1610
▁desire	-1611
▁ground	-1612
▁instru	-1613
▁entreat	-1614
▁justice	-1615
▁Farewell	-1616
gu	-1617
sh	-1618
aud	-1619
ges	-1620
ina	-1621
ixt	-1622
ined	-1623
outh	-1624
▁Sen	-1625
▁mur	-1626
▁ord	-1627
▁vis	-1628
aking	-1629
night	-1630
▁Like	-1631
▁Pray	-1632
▁betw	-1633
▁bold	-1634
▁fast	-1635
▁near	-1636
▁found	-1637
▁slain	-1638
▁France	-1639
▁toward	-1640
▁service	-1641
▁remember	-1642
▁straight	-1643
IZ	-1644
LE	-1645
UF	-1646
LOR	-1647
▁Gl	-1648
IZEL	-1649
UFID	-1650
oman	-1651
ution	-1652
▁FLOR	-1653
▁hard	-1654
▁wear	-1655
▁AUFID	-1656
▁These	-1657
▁alone	-1658
▁curse	-1659
▁quick	-1660
▁beauty	-1661
▁strong	-1662
▁worthy	-1663
▁married	-1664
▁AUFIDIUS	-1665
▁FLORIZEL	-1666
▁Messenger	-1667
xt	-1668
ION	-1669
TON	-1670
let	-1671
▁hu	-1672
adam	-1673
ithe	-1674
ning	-1675
ured	-1676
▁See	-1677
▁bec	-1678
▁run	-1679
▁woo	-1680
audio	-1681
▁exec	-1682
▁open	-1683
▁poss	-1684
▁enemy	-1685
▁grant	-1686
▁ready	-1687
▁touch	-1688
▁Claudio	-1689
▁brought	-1690
▁general	-1691
▁revenge	-1692
!'	-1693
bs	-1694
gs	-1695
ERS	-1696
aunt	-1697
cept	-1698
ible	-1699
inks	-1700
▁fur	-1701
▁inc	-1702
▁inf	-1703
▁iss	-1704
umber	-1705
▁deli	-1706
▁duty	-1707
▁lose	-1708
▁prof	-1709
▁quar	-1710
▁canst	-1711
▁hours	-1712
▁knows	-1713
▁youth	-1714
▁charge	-1715
▁itself	-1716
▁Senator	-1717
▁confess	-1718
▁thoughts	-1719
▁Gentleman	-1720
AS	-1721
EB	-1722
pl	-1723
ua	-1724
vo	-1725
ouc	-1726
CIUS	-1727
ched	-1728
illo	-1729
ship	-1730
▁Bec	-1731
▁SEB	-1732
▁del	-1733
▁par	-1734
ithee	-1735
riage	-1736
▁desp	-1737
▁dist	-1738
▁feel	-1739
▁morn	-1740
▁read	-1741
ASTIAN	-1742
▁Glouc	-1743
▁Madam	-1744
▁speed	-1745
▁Master	-1746
▁stands	-1747
▁streng	-1748
▁twenty	-1749
▁Against	-1750
▁MARCIUS	-1751
▁Montague	-1752
▁Shepherd	-1753
▁SEBASTIAN	-1754
OW	-1755
op	-1756
eep	-1757
olk	-1758
oop	-1759
ump	-1760
▁Pr	-1761
cess	-1762
▁div	-1763
▁jud	-1764
▁fore	-1765
▁half	-1766
▁hell	-1767
▁mock	-1768
▁post	-1769
ingham	-1770
▁field	-1771
▁resol	-1772
fection	-1773
▁behold	-1774
▁Camillo	-1775
▁counsel	-1776
▁fearful	-1777
no	-1778
DEL	-1779
ads	-1780
alm	-1781
ols	-1782
▁Bo	-1783
▁ye	-1784
osom	-1785
▁cut	-1786
▁dam	-1787
▁min	-1788
▁ter	-1789
DELLO	-1790
ortal	-1791
▁BION	-1792
▁Buck	-1793
▁Till	-1794
▁batt	-1795
▁each	-1796
▁trib	-1797
▁work	-1798
▁wret	-1799
▁bosom	-1800
▁bound	-1801
▁known	-1802
▁short	-1803
▁hearts	-1804
▁honest	-1805
▁Hastings	-1806
▁marriage	-1807
▁BIONDELLO	-1808
▁Buckingham	-1809
▁Gloucester	-1810
of	-1811
sc	-1812
rah	-1813
the	-1814
▁ve	-1815
ench	-1816
folk	-1817
iers	-1818
ones	-1819
pare	-1820
▁Cap	-1821
▁ten	-1822
▁tit	-1823
▁whi	-1824
▁Thus	-1825
▁Vols	-1826
▁dish	-1827
▁draw	-1828
▁harm	-1829
▁seek	-1830
▁suit	-1831
▁tale	-1832
▁guilt	-1833
▁serve	-1834
▁widow	-1835
▁women	-1836
▁attend	-1837
▁murder	-1838
▁strike	-1839
▁voices	-1840
▁wonder	-1841
▁Norfolk	-1842
▁company	-1843
▁highness	-1844
▁something	-1845
OP	-1846
Tw	-1847
▁CA	-1848
▁ag	-1849
ERLE	-1850
hood	-1851
most	-1852
▁AUM	-1853
▁bur	-1854
▁cor	-1855
▁sat	-1856
TONIO	-1857
ander	-1858
ished	-1859
▁knew	-1860
▁pret	-1861
▁side	-1862
▁sing	-1863
▁didst	-1864
▁watch	-1865
▁change	-1866
▁loving	-1867
▁ANTONIO	-1868
▁AUMERLE	-1869
▁heavens	-1870
▁Lucentio	-1871
▁strength	-1872
▁gentlemen	-1873
ZA	-1874
ONZA	-1875
ents	-1876
▁Pet	-1877
▁Wel	-1878
▁act	-1879
▁aff	-1880
▁bit	-1881
▁Bian	-1882
▁Lanc	-1883
▁Tran	-1884
▁sake	-1885
▁stir	-1886
▁wast	-1887
ONZALO	-1888
▁Marry	-1889
▁brave	-1890
▁cloud	-1891
▁enter	-1892
ethinks	-1893
▁GONZALO	-1894
▁enemies	-1895
▁pleasure	-1896
▁Lancaster	-1897
bly	-1898
fid	-1899
ils	-1900
rew	-1901
▁Sw	-1902
▁dr	-1903
▁ty	-1904
▁wa	-1905
ives	-1906
oose	-1907
▁HER	-1908
▁Pom	-1909
▁Unt	-1910
▁ext	-1911
▁gar	-1912
▁pie	-1913
▁pra	-1914
▁Lady	-1915
▁Most	-1916
▁begg	-1917
▁chee	-1918
▁next	-1919
▁pale	-1920
▁sign	-1921
ceived	-1922
▁breat	-1923
▁close	-1924
▁gates	-1925
▁music	-1926
▁souls	-1927
▁title	-1928
▁Bianca	-1929
▁coming	-1930
▁course	-1931
▁suffer	-1932
▁thanks	-1933
▁withal	-1934
▁deliver	-1935
be	-1936
AUD	-1937
ats	-1938
els	-1939
▁Au	-1940
▁Ch	-1941
▁sk	-1942
etch	-1943
vour	-1944
▁abs	-1945
▁fit	-1946
AUDIO	-1947
MIONE	-1948
claim	-1949
oward	-1950
▁Rich	-1951
▁forg	-1952
▁grie	-1953
▁jest	-1954
▁lips	-1955
▁rich	-1956
▁sick	-1957
▁weak	-1958
▁CLIFF	-1959
▁Petru	-1960
▁order	-1961
▁plain	-1962
▁become	-1963
▁either	-1964
▁CLAUDIO	-1965
▁CLIFFORD	-1966
▁HERMIONE	-1967
▁patience	-1968
▁themselves	-1969
DA	-1970
isf	-1971
kes	-1972
lly	-1973
oof	-1974
ses	-1975
urp	-1976
▁EL	-1977
▁JO	-1978
▁ac	-1979
arry	-1980
chio	-1981
east	-1982
irth	-1983
race	-1984
rest	-1985
ries	-1986
twas	-1987
▁Bes	-1988
▁reg	-1989
▁ven	-1990
▁wis	-1991
RANDA	-1992
ready	-1993
twere	-1994
▁Call	-1995
▁LORD	-1996
▁Make	-1997
▁cast	-1998
▁forb	-1999
▁prop	-2000
▁same	-2001
▁took	-2002
▁wall	-2003
fidius	-2004
▁Being	-2005
▁Since	-2006
▁along	-2007
▁cheer	-2008
▁merry	-2009
▁sworn	-2010
▁worse	-2011
▁Tranio	-2012
▁breast	-2013
▁consul	-2014
▁forget	-2015
▁poison	-2016
▁virtue	-2017
▁MIRANDA	-2018
▁further	-2019
▁Aufidius	-2020
▁Petruchio	-2021
HN	-2022
cy	-2023
SON	-2024
lst	-2025
▁Re	-2026
▁cr	-2027
▁du	-2028
▁ta	-2029
ally	-2030
ions	-2031
rows	-2032
rust	-2033
vern	-2034
▁bad	-2035
▁emb	-2036
▁enc	-2037
▁red	-2038
▁wed	-2039
▁Alas	-2040
▁JOHN	-2041
▁book	-2042
▁dire	-2043
▁four	-2044
▁gave	-2045
▁move	-2046
▁self	-2047
▁soft	-2048
▁wise	-2049
▁begin	-2050
▁given	-2051
▁issue	-2052
▁liber	-2053
▁loves	-2054
▁mouth	-2055
▁battle	-2056
▁office	-2057
▁already	-2058
▁consent	-2059
▁morning	-2060
▁request	-2061
▁Hereford	-2062
▁dangerous	-2063
nk	-2064
pes	-2065
▁Ar	-2066
anus	-2067
dden	-2068
each	-2069
fter	-2070
icer	-2071
mber	-2072
mond	-2073
orge	-2074
uous	-2075
used	-2076
▁Yes	-2077
▁exp	-2078
▁foe	-2079
▁gro	-2080
▁lad	-2081
▁pay	-2082
▁burn	-2083
▁goes	-2084
▁sons	-2085
▁succ	-2086
▁trou	-2087
▁Speak	-2088
▁Tower	-2089
▁black	-2090
▁feast	-2091
▁frown	-2092
▁Before	-2093
▁satisf	-2094
▁wounds	-2095
▁between	-2096
▁neither	-2097
▁quarrel	-2098
▁Richmond	-2099
▁soldiers	-2100
NT	-2101
awd	-2102
hem	-2103
irm	-2104
ots	-2105
▁Ab	-2106
aret	-2107
aris	-2108
chan	-2109
empt	-2110
ging	-2111
ires	-2112
rist	-2113
ting	-2114
ures	-2115
▁bar	-2116
▁dro	-2117
▁est	-2118
▁hot	-2119
▁mal	-2120
▁und	-2121
TESBY	-2122
garet	-2123
owers	-2124
▁Must	-2125
▁Such	-2126
▁case	-2127
▁dark	-2128
▁priv	-2129
▁sigh	-2130
▁thri	-2131
▁vict	-2132
▁bless	-2133
▁bride	-2134
▁brief	-2135
▁often	-2136
▁water	-2137
▁Unless	-2138
▁having	-2139
▁speech	-2140
▁thence	-2141
▁Because	-2142
▁CATESBY	-2143
▁Welcome	-2144
▁servant	-2145
▁presence	-2146
po	-2147
ILI	-2148
emn	-2149
ona	-2150
▁ev	-2151
alth	-2152
ends	-2153
▁ble	-2154
▁bow	-2155
▁got	-2156
▁pen	-2157
▁sum	-2158
cient	-2159
ondon	-2160
▁Bapt	-2161
▁Both	-2162
▁GREY	-2163
▁Keep	-2164
▁Whom	-2165
▁deny	-2166
▁town	-2167
▁wars	-2168
▁Saint	-2169
▁Their	-2170
▁compl	-2171
▁dread	-2172
▁inter	-2173
▁kings	-2174
▁loved	-2175
▁seems	-2176
▁spoke	-2177
▁visit	-2178
▁voice	-2179
▁London	-2180
▁mighty	-2181
▁mortal	-2182
▁throne	-2183
▁Baptist	-2184
▁flatter	-2185
▁respect	-2186
▁Margaret	-2187
▁Coriolanus	-2188
CA	-2189
IV	-2190
ip	-2191
so	-2192
bed	-2193
ern	-2194
oun	-2195
▁De	-2196
▁Ge	-2197
ILIA	-2198
iant	-2199
ided	-2200
ired	-2201
ourn	-2202
ught	-2203
▁Ere	-2204
▁RIV	-2205
▁bab	-2206
▁bro	-2207
▁buy	-2208
▁cap	-2209
▁col	-2210
▁fra	-2211
▁hur	-2212
▁vow	-2213
IANCA	-2214
▁Isab	-2215
▁Lest	-2216
▁prot	-2217
▁safe	-2218
ainted	-2219
▁Paris	-2220
▁deeds	-2221
▁knock	-2222
▁BIANCA	-2223
▁George	-2224
▁RIVERS	-2225
▁action	-2226
▁appear	-2227
▁bitter	-2228
▁dishon	-2229
▁sudden	-2230
▁ancient	-2231
▁chamber	-2232
▁prayers	-2233
▁promise	-2234
▁worship	-2235
▁Baptista	-2236
▁princely	-2237
ls	-2238
BOW	-2239
cks	-2240
esh	-2241
now	-2242
ura	-2243
▁pu	-2244
AUNT	-2245
ated	-2246
lish	-2247
nown	-2248
oney	-2249
resh	-2250
urch	-2251
▁ang	-2252
▁ign	-2253
▁lim	-2254
▁opp	-2255
▁reb	-2256
▁sac	-2257
essed	-2258
otion	-2259
right	-2260
stand	-2261
▁bawd	-2262
▁lead	-2263
▁rage	-2264
▁viol	-2265
antage	-2266
▁ELBOW	-2267
▁GAUNT	-2268
▁Roman	-2269
▁Stand	-2270
▁appro	-2271
▁creat	-2272
▁cross	-2273
▁fetch	-2274
▁flesh	-2275
▁heads	-2276
▁scorn	-2277
▁coward	-2278
▁lament	-2279
▁triump	-2280
▁kingdom	-2281
▁patient	-2282
▁prepare	-2283
▁success	-2284
▁valiant	-2285
▁witness	-2286
▁presently	-2287
UR	-2288
to	-2289
GUE	-2290
iff	-2291
ler	-2292
urs	-2293
▁Bl	-2294
▁Jo	-2295
▁Ox	-2296
▁TY	-2297
▁ow	-2298
ONTA	-2299
aken	-2300
mand	-2301
sper	-2302
▁cle	-2303
▁eat	-2304
▁ins	-2305
▁lab	-2306
▁unw	-2307
antag	-2308
ensio	-2309
ities	-2310
itted	-2311
▁Hort	-2312
▁Merc	-2313
▁gall	-2314
▁kins	-2315
▁lack	-2316
▁moon	-2317
▁prin	-2318
▁scar	-2319
▁wash	-2320
▁MONTA	-2321
▁Think	-2322
▁drink	-2323
▁least	-2324
▁offer	-2325
▁slave	-2326
▁throw	-2327
▁Christ	-2328
▁Oxford	-2329
▁defend	-2330
▁faults	-2331
▁secret	-2332
▁forward	-2333
▁prithee	-2334
▁MONTAGUE	-2335
▁tribunes	-2336
▁Hortensio	-2337
ac	-2338
als	-2339
bit	-2340
ees	-2341
ley	-2342
pey	-2343
ued	-2344
▁id	-2345
aked	-2346
feit	-2347
host	-2348
ines	-2349
king	-2350
ully	-2351
vest	-2352
ying	-2353
▁Con	-2354
▁Gre	-2355
▁Kat	-2356
▁Whi	-2357
▁ben	-2358
▁fie	-2359
▁mid	-2360
▁nay	-2361
▁occ	-2362
▁sur	-2363
▁Doth	-2364
▁Hark	-2365
▁damn	-2366
▁dest	-2367
▁hide	-2368
▁writ	-2369
asters	-2370
harina	-2371
▁Bohem	-2372
▁North	-2373
▁beast	-2374
▁small	-2375
▁Pompey	-2376
▁almost	-2377
▁chance	-2378
▁depart	-2379
▁pretty	-2380
▁possess	-2381
▁thither	-2382
umberland	-2383
▁subjects	-2384
▁Katharina	-2385
▁execution	-2386
▁slaughter	-2387
▁Northumberland	-2388
AT	-2389
RG	-2390
ITA	-2391
arl	-2392
aul	-2393
rum	-2394
umb	-2395
▁Ad	-2396
▁Am	-2397
▁Br	-2398
▁Ca	-2399
▁Ex	-2400
▁ut	-2401
hind	-2402
oint	-2403
then	-2404
ural	-2405
▁eas	-2406
inger	-2407
ingly	-2408
ledge	-2409
▁Hold	-2410
▁PERD	-2411
▁Paul	-2412
▁VIRG	-2413
▁base	-2414
▁fill	-2415
▁fond	-2416
▁form	-2417
▁glad	-2418
▁inno	-2419
▁pain	-2420
▁stru	-2421
▁tear	-2422
▁wert	-2423
cience	-2424
perate	-2425
▁Peace	-2426
▁Sweet	-2427
▁birth	-2428
▁hadst	-2429
▁trump	-2430
▁usurp	-2431
▁awhile	-2432
▁favour	-2433
▁goodly	-2434
▁living	-2435
▁whence	-2436
▁Bohemia	-2437
▁PERDITA	-2438
▁certain	-2439
▁hearing	-2440
▁offence	-2441
▁perform	-2442
▁proceed	-2443
▁quickly	-2444
▁VIRGILIA	-2445
▁virtuous	-2446
LY	-2447
ze	-2448
dge	-2449
eds	-2450
eem	-2451
raw	-2452
ror	-2453
▁ay	-2454
▁ca	-2455
▁ur	-2456
IANA	-2457
ding	-2458
iest	-2459
omes	-2460
orth	-2461
over	-2462
▁Off	-2463
▁SLY	-2464
▁Yea	-2465
▁adm	-2466
▁inj	-2467
▁pit	-2468
▁shi	-2469
▁tor	-2470
edant	-2471
force	-2472
isure	-2473
ustom	-2474
▁Stay	-2475
▁fier	-2476
▁knee	-2477
▁mild	-2478
▁shad	-2479
▁slew	-2480
▁walk	-2481
▁wild	-2482
astard	-2483
▁angry	-2484
▁blows	-2485
▁forsw	-2486
▁kneel	-2487
▁match	-2488
▁pleas	-2489
▁quiet	-2490
▁worst	-2491
▁Isabel	-2492
▁church	-2493
▁guilty	-2494
▁lawful	-2495
▁MARIANA	-2496
▁greater	-2497
▁leisure	-2498
▁soldier	-2499
▁treason	-2500
▁weeping	-2501
▁deserved	-2502
▁affection	-2503
gg	-2504
arn	-2505
awn	-2506
gue	-2507
joy	-2508
ked	-2509
med	-2510
ony	-2511
ual	-2512
vol	-2513
zen	-2514
▁ST	-2515
▁Tw	-2516
▁ap	-2517
▁em	-2518
ARIS	-2519
adua	-2520
ames	-2521
ighb	-2522
read	-2523
rupt	-2524
▁Bel	-2525
▁Men	-2526
▁Out	-2527
▁fam	-2528
▁hap	-2529
▁med	-2530
▁mod	-2531
▁nob	-2532
▁sho	-2533
▁unc	-2534
▁unk	-2535
▁won	-2536
ended	-2537
eness	-2538
fully	-2539
remio	-2540
rumio	-2541
▁Mist	-2542
▁blow	-2543
▁doom	-2544
▁fled	-2545
▁list	-2546
▁neck	-2547
▁sole	-2548
▁year	-2549
▁PARIS	-2550
▁Padua	-2551
▁Watch	-2552
▁While	-2553
▁ignor	-2554
▁march	-2555
▁needs	-2556
▁reign	-2557
▁sense	-2558
▁shows	-2559
antagen	-2560
itizens	-2561
osition	-2562
▁Gremio	-2563
▁Grumio	-2564
▁behind	-2565
▁clouds	-2566
▁contin	-2567
▁encoun	-2568
▁forbid	-2569
▁govern	-2570
▁ladies	-2571
▁letter	-2572
▁second	-2573
▁speaks	-2574
▁English	-2575
▁because	-2576
▁breathe	-2577
▁condemn	-2578
▁letters	-2579
▁liberty	-2580
▁measure	-2581
▁trouble	-2582
▁wouldst	-2583
▁prisoner	-2584
▁sentence	-2585
▁shepherd	-2586
▁Plantagen	-2587
▁dishonour	-2588
▁ourselves	-2589
▁banishment	-2590
:'	-2591
▁X	-2592
dle	-2593
ize	-2594
oor	-2595
oss	-2596
rue	-2597
vel	-2598
acle	-2599
aves	-2600
ider	-2601
iles	-2602
rous	-2603
ster	-2604
▁Ant	-2605
▁Hea	-2606
▁Int	-2607
▁Too	-2608
▁big	-2609
▁cru	-2610
▁dog	-2611
▁dry	-2612
▁lan	-2613
▁mut	-2614
▁oft	-2615
▁pet	-2616
▁ref	-2617
aring	-2618
ators	-2619
ndred	-2620
▁Fear	-2621
▁five	-2622
▁held	-2623
▁join	-2624
▁laid	-2625
▁note	-2626
▁obey	-2627
▁seat	-2628
▁sort	-2629
▁stor	-2630
▁temp	-2631
▁vain	-2632
▁womb	-2633
▁Gaunt	-2634
▁PETER	-2635
▁above	-2636
▁aside	-2637
▁bones	-2638
▁drunk	-2639
▁fresh	-2640
▁grand	-2641
▁lived	-2642
▁noise	-2643
▁piece	-2644
▁rough	-2645
▁steal	-2646
▁Sirrah	-2647
▁appare	-2648
▁choose	-2649
▁golden	-2650
▁longer	-2651
▁morrow	-2652
▁remain	-2653
▁hundred	-2654
▁prosper	-2655
▁victory	-2656
▁dispatch	-2657
▁proclaim	-2658
▁conscience	-2659
▁Plantagenet	-2660
bb	-2661
hn	-2662
ny	-2663
ts	-2664
!--	-2665
ART	-2666
WIS	-2667
ban	-2668
ety	-2669
ieu	-2670
ott	-2671
rim	-2672
set	-2673
ume	-2674
vey	-2675
▁En	-2676
▁Fa	-2677
▁Me	-2678
▁Sc	-2679
▁XI	-2680
▁ef	-2681
RIEL	-2682
ceit	-2683
erle	-2684
iled	-2685
ular	-2686
ulet	-2687
▁DOR	-2688
▁Per	-2689
▁exc	-2690
▁ind	-2691
▁lau	-2692
▁len	-2693
▁low	-2694
▁saf	-2695
▁sch	-2696
▁sto	-2697
▁sus	-2698
asion	-2699
inius	-2700
lease	-2701
ounds	-2702
posed	-2703
uthor	-2704
▁Earl	-2705
▁Hear	-2706
▁LART	-2707
▁Unto	-2708
▁bend	-2709
▁fine	-2710
▁lust	-2711
▁obed	-2712
▁purs	-2713
▁shed	-2714
▁tent	-2715
▁warm	-2716
▁woes	-2717
atesby	-2718
icious	-2719
▁ARIEL	-2720
▁Could	-2721
▁LEWIS	-2722
▁bears	-2723
▁broke	-2724
▁conqu	-2725
▁doing	-2726
▁drown	-2727
▁glory	-2728
▁knees	-2729
▁lands	-2730
▁pride	-2731
▁saint	-2732
▁stain	-2733
▁steel	-2734
▁stood	-2735
▁swift	-2736
▁venge	-2737
▁double	-2738
▁effect	-2739
▁forgot	-2740
▁labour	-2741
▁revere	-2742
▁threat	-2743
▁wisdom	-2744
▁Capulet	-2745
▁Catesby	-2746
▁LARTIUS	-2747
▁blessed	-2748
▁counter	-2749
▁despair	-2750
▁kinsman	-2751
▁slander	-2752
▁towards	-2753
▁Watchman	-2754
▁citizens	-2755
▁precious	-2756
▁desperate	-2757
▁encounter	-2758
▁entertain	-2759
▁knowledge	-2760
▁yourselves	-2761
;'	-2762
AMP	-2763
TIS	-2764
ang	-2765
irl	-2766
owb	-2767
ude	-2768
uff	-2769
▁fe	-2770
cted	-2771
ease	-2772
iful	-2773
rent	-2774
vail	-2775
▁Aum	-2776
▁CUR	-2777
▁Dis	-2778
▁Fri	-2779
▁Ver	-2780
▁eld	-2781
▁fat	-2782
▁few	-2783
▁fru	-2784
▁pun	-2785
▁ran	-2786
▁uns	-2787
eterm	-2788
gment	-2789
iance	-2790
ility	-2791
itors	-2792
rence	-2793
▁Cons	-2794
▁John	-2795
▁Mowb	-2796
▁SAMP	-2797
▁abro	-2798
▁army	-2799
▁capt	-2800
▁corn	-2801
▁died	-2802
▁foll	-2803
▁hair	-2804
▁kept	-2805
▁seal	-2806
▁sour	-2807
▁stud	-2808
ations	-2809
estion	-2810
ointed	-2811
ontent	-2812
▁alive	-2813
▁const	-2814
▁contr	-2815
▁dance	-2816
▁enjoy	-2817
▁guess	-2818
▁guest	-2819
▁money	-2820
▁mount	-2821
▁plant	-2822
▁quoth	-2823
▁remed	-2824
▁sever	-2825
▁white	-2826
▁CURTIS	-2827
▁Keeper	-2828
▁Pedant	-2829
▁Within	-2830
▁author	-2831
▁beggar	-2832
▁cheeks	-2833
▁deadly	-2834
▁determ	-2835
▁fought	-2836
▁health	-2837
▁manner	-2838
▁struck	-2839
▁Aumerle	-2840
▁Mowbray	-2841
▁SAMPSON	-2842
▁bastard	-2843
▁flowers	-2844
▁honours	-2845
▁masters	-2846
▁lordship	-2847
▁methinks	-2848
▁promised	-2849
▁wretched	-2850
▁understand	-2851
BU	-2852
ne	-2853
:--	-2854
GON	-2855
LEY	-2856
ash	-2857
den	-2858
ief	-2859
mit	-2860
ppy	-2861
tle	-2862
▁EX	-2863
▁Fl	-2864
▁Ne	-2865
BURY	-2866
bury	-2867
ewis	-2868
head	-2869
ited	-2870
osed	-2871
reed	-2872
utio	-2873
ways	-2874
▁Put	-2875
▁aid	-2876
▁deg	-2877
▁pal	-2878
▁rot	-2879
▁sim	-2880
▁try	-2881
GONUS	-2882
ament	-2883
ounce	-2884
▁ANTI	-2885
▁Mine	-2886
▁Poor	-2887
▁cred	-2888
▁gent	-2889
▁prov	-2890
orious	-2891
▁Lewis	-2892
▁among	-2893
▁calls	-2894
▁cried	-2895
▁cruel	-2896
▁early	-2897
▁going	-2898
▁greet	-2899
▁guard	-2900
▁judge	-2901
▁liest	-2902
▁moved	-2903
▁seven	-2904
▁shake	-2905
▁spent	-2906
▁stars	-2907
▁teach	-2908
▁truly	-2909
▁Either	-2910
▁Heaven	-2911
▁Pardon	-2912
▁demand	-2913
▁dreams	-2914
▁extrem	-2915
▁humble	-2916
▁neighb	-2917
▁priest	-2918
▁scarce	-2919
▁summer	-2920
▁valour	-2921
▁wretch	-2922
▁account	-2923
▁charity	-2924
▁foolish	-2925
▁herself	-2926
▁kindred	-2927
▁officer	-2928
▁triumph	-2929
▁whether	-2930
▁Citizens	-2931
▁Mercutio	-2932
▁brothers	-2933
▁ANTIGONUS	-2934
▁honourable	-2935
BR	-2936
lp	-2937
ATC	-2938
BRA	-2939
ask	-2940
iew	-2941
ify	-2942
pir	-2943
roy	-2944
▁ba	-2945
▁ga	-2946
Twas	-2947
ians	-2948
ites	-2949
leep	-2950
mble	-2951
▁Bet	-2952
▁Bid	-2953
▁add	-2954
▁cir	-2955
▁din	-2956
▁rid	-2957
▁unf	-2958
▁yea	-2959
arted	-2960
ating	-2961
house	-2962
ining	-2963
orthy	-2964
under	-2965
▁Made	-2966
▁Mars	-2967
▁Once	-2968
▁RATC	-2969
▁anon	-2970
▁beha	-2971
▁bids	-2972
▁dism	-2973
▁ease	-2974
▁envy	-2975
▁fart	-2976
▁hung	-2977
▁idle	-2978
▁imag	-2979
▁ours	-2980
▁pack	-2981
▁rise	-2982
▁thro	-2983
▁view	-2984
▁wail	-2985
though	-2986
▁Alack	-2987
▁Faith	-2988
▁Harry	-2989
▁Music	-2990
▁Never	-2991
▁benef	-2992
▁blame	-2993
▁chast	-2994
▁crave	-2995
▁dwell	-2996
▁faint	-2997
▁faire	-2998
▁force	-2999
▁glass	-3000
▁laugh	-3001
▁miser	-3002
▁month	-3003
▁party	-3004
▁stone	-3005
▁subst	-3006
▁trial	-3007
▁walls	-3008
▁weary	-3009
▁abroad	-3010
▁bright	-3011
▁custom	-3012
▁malice	-3013
▁others	-3014
▁thinks	-3015
▁winter	-3016
▁Volsces	-3017
▁butcher	-3018
▁fellows	-3019
▁private	-3020
▁provost	-3021
▁thereof	-3022
▁Cominius	-3023
▁RATCLIFF	-3024
▁kindness	-3025
▁minister	-3026
▁condition	-3027
▁satisfied	-3028
▁vengeance	-3029
▁wherefore	-3030
ALT	-3031
HOP	-3032
amp	-3033
ope	-3034
BALT	-3035
cell	-3036
enes	-3037
lock	-3038
ners	-3039
omas	-3040
rees	-3041
scal	-3042
vell	-3043
with	-3044
▁Des	-3045
▁Fie	-3046
▁Rut	-3047
▁Vin	-3048
▁bef	-3049
▁env	-3050
▁god	-3051
▁hol	-3052
▁rel	-3053
▁smo	-3054
▁unb	-3055
▁unl	-3056
▁unp	-3057
▁ver	-3058
▁wag	-3059
▁wre	-3060
ANLEY	-3061
ISHOP	-3062
ailor	-3063
allow	-3064
antua	-3065
eless	-3066
icked	-3067
ident	-3068
orous	-3069
rench	-3070
▁Barn	-3071
▁Show	-3072
▁True	-3073
▁acqu	-3074
▁arri	-3075
▁bite	-3076
▁boot	-3077
▁deal	-3078
▁dull	-3079
▁easy	-3080
▁evil	-3081
▁firm	-3082
▁foes	-3083
▁gown	-3084
▁incl	-3085
▁lest	-3086
▁meat	-3087
▁root	-3088
▁vice	-3089
▁vile	-3090
▁After	-3091
▁Hence	-3092
▁Lords	-3093
▁Peter	-3094
▁Under	-3095
▁blind	-3096
▁concl	-3097
▁corse	-3098
▁cover	-3099
▁fruit	-3100
▁mayst	-3101
▁quite	-3102
▁shore	-3103
▁shrew	-3104
▁sport	-3105
▁wench	-3106
▁Mantua	-3107
▁Please	-3108
▁TYBALT	-3109
▁Thomas	-3110
▁Whilst	-3111
▁afford	-3112
▁convey	-3113
▁deputy	-3114
▁excuse	-3115
▁flower	-3116
▁former	-3117
▁humour	-3118
▁prophe	-3119
▁school	-3120
▁swords	-3121
▁tyrant	-3122
▁Corioli	-3123
▁Paulina	-3124
▁Rutland	-3125
▁STANLEY	-3126
▁changed	-3127
▁counten	-3128
▁honesty	-3129
▁tongues	-3130
▁Methinks	-3131
▁judgment	-3132
▁question	-3133
▁received	-3134
▁Vincentio	-3135
'?	-3136
AK	-3137
ek	-3138
AND	-3139
HOM	-3140
ead	-3141
llo	-3142
she	-3143
und	-3144
▁Lo	-3145
AKEN	-3146
aper	-3147
azed	-3148
ered	-3149
ilia	-3150
omer	-3151
ract	-3152
rate	-3153
rift	-3154
roth	-3155
vish	-3156
▁Art	-3157
▁Ind	-3158
▁Sic	-3159
▁Tut	-3160
▁spe	-3161
HOMAS	-3162
acher	-3163
anley	-3164
arden	-3165
cians	-3166
ement	-3167
rison	-3168
twixt	-3169
ursed	-3170
woman	-3171
▁Dost	-3172
▁Jove	-3173
▁Love	-3174
▁Wilt	-3175
▁brow	-3176
▁circ	-3177
▁cure	-3178
▁disg	-3179
▁door	-3180
▁dust	-3181
▁fain	-3182
▁feed	-3183
▁gift	-3184
▁girl	-3185
▁leng	-3186
▁nose	-3187
▁stab	-3188
▁stop	-3189
ealous	-3190
idings	-3191
▁Caius	-3192
▁Death	-3193
▁Friar	-3194
▁blest	-3195
▁brows	-3196
▁fiery	-3197
▁ghost	-3198
▁green	-3199
▁gross	-3200
▁grown	-3201
▁joint	-3202
▁knave	-3203
▁pains	-3204
▁proof	-3205
▁sheep	-3206
▁spake	-3207
▁stoop	-3208
▁taken	-3209
▁twice	-3210
▁tyran	-3211
▁BRAKEN	-3212
▁Prince	-3213
▁THOMAS	-3214
▁Verona	-3215
▁affair	-3216
▁always	-3217
▁buried	-3218
▁choice	-3219
▁divine	-3220
▁finger	-3221
▁import	-3222
▁leaves	-3223
▁necess	-3224
▁remedy	-3225
▁repent	-3226
▁sacred	-3227
▁safety	-3228
▁senate	-3229
▁sirrah	-3230
▁spring	-3231
▁undert	-3232
▁whilst	-3233
▁wicked	-3234
▁wither	-3235
▁wrongs	-3236
▁Besides	-3237
▁Brother	-3238
▁Stanley	-3239
▁embrace	-3240
▁prevail	-3241
▁prevent	-3242
▁reasons	-3243
▁silence	-3244
▁therein	-3245
▁thunder	-3246
▁Mistress	-3247
▁creature	-3248
▁innocent	-3249
▁occasion	-3250
▁perceive	-3251
▁traitors	-3252
▁BRAKENBURY	-3253
?'	-3254
jo	-3255
mn	-3256
sp	-3257
GOR	-3258
ONE	-3259
STR	-3260
eld	-3261
hys	-3262
loy	-3263
nat	-3264
oly	-3265
omp	-3266
pin	-3267
shi	-3268
▁AE	-3269
▁OV	-3270
▁ed	-3271
▁es	-3272
ERBY	-3273
GORY	-3274
aced	-3275
anch	-3276
aste	-3277
ault	-3278
elve	-3279
hant	-3280
itol	-3281
oard	-3282
orry	-3283
unts	-3284
▁Apo	-3285
▁avo	-3286
▁cre	-3287
▁dec	-3288
▁eag	-3289
▁ele	-3290
▁emp	-3291
▁lar	-3292
▁rob	-3293
▁shr	-3294
ctise	-3295
enius	-3296
hysic	-3297
inous	-3298
▁Turn	-3299
▁bark	-3300
▁drop	-3301
▁empt	-3302
▁fury	-3303
▁rock	-3304
▁rude	-3305
▁sail	-3306
▁shar	-3307
▁ship	-3308
▁sits	-3309
▁used	-3310
▁went	-3311
ERDONE	-3312
STRESS	-3313
ardine	-3314
edious	-3315
othing	-3316
unning	-3317
▁DERBY	-3318
▁Somer	-3319
▁adieu	-3320
▁allow	-3321
▁anger	-3322
▁belly	-3323
▁cares	-3324
▁cheek	-3325
▁claim	-3326
▁condu	-3327
▁drawn	-3328
▁fares	-3329
▁langu	-3330
▁loath	-3331
▁loyal	-3332
▁maids	-3333
▁mayor	-3334
▁plead	-3335
▁round	-3336
▁smile	-3337
▁tempt	-3338
▁troth	-3339
▁utter	-3340
▁weeds	-3341
▁wings	-3342
▁Having	-3343
▁Indeed	-3344
▁Myself	-3345
▁assist	-3346
▁broken	-3347
▁design	-3348
▁fright	-3349
▁garden	-3350
▁hollow	-3351
▁inform	-3352
▁knight	-3353
▁oracle	-3354
▁plague	-3355
▁prayer	-3356
▁renown	-3357
▁rotten	-3358
▁stones	-3359
▁wanton	-3360
aughters	-3361
▁Capitol	-3362
▁GREGORY	-3363
▁Prithee	-3364
▁Wherein	-3365
▁Without	-3366
▁absence	-3367
▁commend	-3368
▁delight	-3369
▁deserve	-3370
▁despite	-3371
▁profess	-3372
▁violent	-3373
▁wherein	-3374
▁MISTRESS	-3375
▁Menenius	-3376
▁OVERDONE	-3377
▁Somerset	-3378
▁deceived	-3379
▁ignorant	-3380
▁imprison	-3381
▁practise	-3382
▁treacher	-3383
▁trumpets	-3384
▁Barnardine	-3385
▁countenance	-3386
XF	-3387
MON	-3388
act	-3389
aze	-3390
cha	-3391
esy	-3392
isa	-3393
mon	-3394
pet	-3395
ALER	-3396
MOND	-3397
ards	-3398
ashi	-3399
cend	-3400
draw	-3401
eeth	-3402
eous	-3403
haps	-3404
held	-3405
ione	-3406
ises	-3407
ongs	-3408
othe	-3409
rand	-3410
rehe	-3411
semb	-3412
utes	-3413
▁Lea	-3414
▁OXF	-3415
▁Pol	-3416
▁Pre	-3417
▁Res	-3418
▁SOM	-3419
▁Sha	-3420
▁aim	-3421
▁amb	-3422
▁det	-3423
▁dew	-3424
▁due	-3425
▁dur	-3426
▁hid	-3427
▁hit	-3428
▁pil	-3429
▁pin	-3430
▁six	-3431
ERSET	-3432
iment	-3433
mione	-3434
rious	-3435
▁Grey	-3436
▁Into	-3437
▁Know	-3438
▁Mark	-3439
▁Pisa	-3440
▁alas	-3441
▁babe	-3442
▁ball	-3443
▁cell	-3444
▁earn	-3445
▁gain	-3446
▁heav	-3447
▁lamb	-3448
▁loud	-3449
▁nine	-3450
▁ones	-3451
▁pair	-3452
▁pawn	-3453
▁publ	-3454
▁ruin	-3455
▁sens	-3456
▁star	-3457
▁stat	-3458
▁tune	-3459
▁wont	-3460
ALERIA	-3461
change	-3462
ission	-3463
itting	-3464
pinion	-3465
ursday	-3466
▁Great	-3467
▁Three	-3468
▁aught	-3469
▁awake	-3470
▁borne	-3471
▁carry	-3472
▁chief	-3473
▁cries	-3474
▁deare	-3475
▁fatal	-3476
▁fools	-3477
▁gives	-3478
▁names	-3479
▁persu	-3480
▁sighs	-3481
▁steed	-3482
▁stock	-3483
▁storm	-3484
▁stuff	-3485
▁tread	-3486
▁whole	-3487
▁wives	-3488
▁woful	-3489
onounce	-3490
▁Apollo	-3491
▁Cousin	-3492
▁OXFORD	-3493
▁Rivers	-3494
▁advise	-3495
▁asleep	-3496
▁begins	-3497
▁castle	-3498
▁colour	-3499
▁damned	-3500
▁devise	-3501
▁excell	-3502
▁infect	-3503
▁motion	-3504
▁nobles	-3505
▁number	-3506
▁offend	-3507
▁proper	-3508
▁rememb	-3509
▁resign	-3510
▁simple	-3511
▁supper	-3512
▁thrive	-3513
▁throat	-3514
▁thrust	-3515
▁undone	-3516
ethought	-3517
▁VALERIA	-3518
▁affairs	-3519
▁becomes	-3520
▁benefit	-3521
▁burthen	-3522
▁deposed	-3523
▁envious	-3524
▁express	-3525
▁farther	-3526
▁follows	-3527
▁hanging	-3528
▁jealous	-3529
▁meaning	-3530
▁outward	-3531
▁passing	-3532
▁pleased	-3533
▁protect	-3534
▁receive	-3535
▁tedious	-3536
▁tidings	-3537
▁vantage	-3538
▁Hermione	-3539
▁Musician	-3540
▁RICHMOND	-3541
▁SOMERSET	-3542
▁Thursday	-3543
▁banished	-3544
▁dreadful	-3545
▁garments	-3546
▁possible	-3547
▁prepared	-3548
▁shouldst	-3549
▁Christian	-3550
▁authority	-3551
▁followers	-3552
▁disposition	-3553
BH	-3554
HY	-3555
SA	-3556
eg	-3557
go	-3558
ub	-3559
ene	-3560
enn	-3561
gle	-3562
hop	-3563
rib	-3564
ron	-3565
run	-3566
thi	-3567
▁Bi	-3568
▁er	-3569
▁ir	-3570
BHOR	-3571
BRAY	-3572
ETER	-3573
LIUS	-3574
OPSA	-3575
USHY	-3576
anct	-3577
ancy	-3578
arch	-3579
ared	-3580
atsw	-3581
cing	-3582
ello	-3583
iffe	-3584
ills	-3585
ldom	-3586
ords	-3587
room	-3588
yard	-3589
yond	-3590
▁Boy	-3591
▁Has	-3592
▁MOW	-3593
▁bew	-3594
▁cal	-3595
▁cam	-3596
▁equ	-3597
▁lip	-3598
▁lod	-3599
▁owe	-3600
▁sup	-3601
▁top	-3602
▁van	-3603
after	-3604
eding	-3605
ellow	-3606
erved	-3607
imely	-3608
itude	-3609
loved	-3610
orses	-3611
ounty	-3612
ouses	-3613
place	-3614
usion	-3615
▁Bona	-3616
▁Help	-3617
▁Very	-3618
▁ange	-3619
▁band	-3620
▁bond	-3621
▁cens	-3622
▁conj	-3623
▁disd	-3624
▁drum	-3625
▁gage	-3626
▁hurt	-3627
▁lean	-3628
▁legs	-3629
▁lend	-3630
▁prey	-3631
▁quit	-3632
▁rash	-3633
▁room	-3634
▁seas	-3635
▁shut	-3636
▁step	-3637
▁sway	-3638
▁tort	-3639
▁weap	-3640
▁wine	-3641
enture	-3642
illing	-3643
iteous	-3644
ixenes	-3645
ortion	-3646
▁ABHOR	-3647
▁BUSHY	-3648
▁Biond	-3649
▁Leave	-3650
▁MAMIL	-3651
▁MOPSA	-3652
▁Still	-3653
▁accus	-3654
▁brook	-3655
▁chair	-3656
▁clear	-3657
▁crack	-3658
▁curst	-3659
▁delay	-3660
▁empty	-3661
▁exile	-3662
▁keeps	-3663
▁mourn	-3664
▁paper	-3665
▁parts	-3666
▁penit	-3667
▁peril	-3668
▁prize	-3669
▁sanct	-3670
▁sorry	-3671
▁speci	-3672
▁spend	-3673
▁store	-3674
▁taste	-3675
▁teeth	-3676
▁trans	-3677
▁unnat	-3678
▁until	-3679
▁wrath	-3680
atswain	-3681
utation	-3682
▁EXETER	-3683
▁Tailor	-3684
▁accept	-3685
▁access	-3686
▁accuse	-3687
▁affect	-3688
▁beheld	-3689
▁belike	-3690
▁circum	-3691
▁denied	-3692
▁desert	-3693
▁dinner	-3694
▁flight	-3695
▁humbly	-3696
▁intend	-3697
▁kingly	-3698
▁palace	-3699
▁partic	-3700
▁perish	-3701
▁physic	-3702
▁punish	-3703
▁shadow	-3704
▁silver	-3705
▁solemn	-3706
▁twelve	-3707
▁wander	-3708
▁weight	-3709
▁Believe	-3710
▁MOWBRAY	-3711
▁Officer	-3712
▁betwixt	-3713
▁conquer	-3714
▁corrupt	-3715
▁cunning	-3716
▁perfect	-3717
▁protest	-3718
▁resolve	-3719
▁several	-3720
▁spirits	-3721
▁wedding	-3722
▁whither	-3723
▁ABHORSON	-3724
▁continue	-3725
▁contrary	-3726
▁courtesy	-3727
▁forsworn	-3728
▁goodness	-3729
▁murderer	-3730
▁petition	-3731
▁pleasant	-3732
▁resolved	-3733
▁threaten	-3734
▁Biondello	-3735
▁MAMILLIUS	-3736
▁Polixenes	-3737
▁advantage	-3738
▁daughters	-3739
▁miserable	-3740
▁neighbour	-3741
▁gentlewoman	-3742
CH	-3743
af	-3744
dy	-3745
rt	-3746
RCH	-3747
aff	-3748
ane	-3749
cio	-3750
ept	-3751
irg	-3752
oke	-3753
oot	-3754
ote	-3755
pic	-3756
que	-3757
ung	-3758
▁Co	-3759
▁di	-3760
▁pi	-3761
ALTH	-3762
ASAR	-3763
ERCY	-3764
amed	-3765
cape	-3766
cian	-3767
ency	-3768
erve	-3769
mity	-3770
oler	-3771
outs	-3772
ping	-3773
sequ	-3774
sing	-3775
uted	-3776
▁AEd	-3777
▁Nap	-3778
▁Rep	-3779
▁Two	-3780
▁ado	-3781
▁arg	-3782
▁bas	-3783
▁bud	-3784
▁clo	-3785
▁cup	-3786
▁dag	-3787
▁fee	-3788
▁fle	-3789
▁fro	-3790
▁sep	-3791
▁tut	-3792
▁wol	-3793
▁wot	-3794
aries	-3795
clock	-3796
ising	-3797
kedom	-3798
pping	-3799
rease	-3800
umble	-3801
▁ARCH	-3802
▁Bear	-3803
▁None	-3804
▁Only	-3805
▁amen	-3806
▁calm	-3807
▁comb	-3808
▁debt	-3809
▁dies	-3810
▁dign	-3811
▁diss	-3812
▁ends	-3813
▁fail	-3814
▁gate	-3815
▁hark	-3816
▁heed	-3817
▁hunt	-3818
▁joys	-3819
▁mend	-3820
▁miss	-3821
▁plot	-3822
▁pure	-3823
▁rose	-3824
▁slow	-3825
▁tomb	-3826
▁ways	-3827
▁wits	-3828
▁wond	-3829
▁wood	-3830
igence	-3831
lesome	-3832
ourish	-3833
picion	-3834
urance	-3835
urious	-3836
ustice	-3837
▁BALTH	-3838
▁Mayor	-3839
▁Might	-3840
▁PERCY	-3841
▁Right	-3842
▁chide	-3843
▁dares	-3844
▁durst	-3845
▁faces	-3846
▁fashi	-3847
▁folly	-3848
▁griev	-3849
▁groan	-3850
▁hopes	-3851
▁large	-3852
▁naked	-3853
▁scept	-3854
▁seest	-3855
▁sharp	-3856
▁spare	-3857
▁story	-3858
▁table	-3859
▁tremb	-3860
▁turns	-3861
▁weigh	-3862
▁whore	-3863
▁wreck	-3864
hearted	-3865
▁BISHOP	-3866
▁Father	-3867
▁French	-3868
▁beyond	-3869
▁bodies	-3870
▁called	-3871
▁comple	-3872
▁credit	-3873
▁crowns	-3874
▁cursed	-3875
▁curses	-3876
▁employ	-3877
▁endure	-3878
▁expect	-3879
▁fairly	-3880
▁hatred	-3881
▁horses	-3882
▁intent	-3883
▁joyful	-3884
▁making	-3885
▁market	-3886
▁misery	-3887
▁perpet	-3888
▁public	-3889
▁quench	-3890
▁reward	-3891
▁seeing	-3892
▁spoken	-3893
▁temper	-3894
▁terror	-3895
▁theirs	-3896
▁waters	-3897
▁whiles	-3898
▁yonder	-3899
▁Beseech	-3900
▁Marshal	-3901
▁Nothing	-3902
▁advance	-3903
▁apparel	-3904
▁attempt	-3905
▁beloved	-3906
▁colours	-3907
▁courage	-3908
▁dukedom	-3909
▁looking	-3910
▁mistake	-3911
▁natural	-3912
▁needful	-3913
▁opinion	-3914
▁painted	-3915
▁piteous	-3916
▁princes	-3917
▁remains	-3918
▁shortly	-3919
▁swallow	-3920
▁wounded	-3921
▁complain	-3922
▁discover	-3923
▁fortunes	-3924
▁instruct	-3925
▁language	-3926
▁princess	-3927
▁senators	-3928
▁services	-3929
▁sometime	-3930
▁BALTHASAR	-3931
▁assurance	-3932
▁commanded	-3933
▁excellent	-3934
▁happiness	-3935
▁hereafter	-3936
▁obedience	-3937
▁pronounce	-3938
▁sometimes	-3939
▁undertake	-3940
▁unnatural	-3941
▁discontent	-3942
▁government	-3943
▁instrument	-3944
▁counterfeit	-3945
▁remembrance	-3946
OS	-3947
oe	-3948
ys	-3949
?--	-3950
CAS	-3951
FOL	-3952
OSS	-3953
afe	-3954
bow	-3955
dds	-3956
fer	-3957
hor	-3958
ita	-3959
lar	-3960
lic	-3961
val	-3962
whe	-3963
▁El	-3964
▁Le	-3965
FOLK	-3966
ants	-3967
arts	-3968
atic	-3969
born	-3970
gers	-3971
hest	-3972
noon	-3973
oved	-3974
same	-3975
uary	-3976
uses	-3977
what	-3978
wise	-3979
▁App	-3980
▁Cal	-3981
▁Lay	-3982
▁Rem	-3983
▁Ret	-3984
▁Ros	-3985
▁Set	-3986
▁Tit	-3987
▁gru	-3988
▁haz	-3989
▁imm	-3990
▁its	-3991
▁kin	-3992
▁led	-3993
▁mag	-3994
▁odd	-3995
▁pol	-3996
▁sky	-3997
▁tap	-3998
▁ung	-3999
▁vex	-4000
akest	-4001
arent	-4002
ences	-4003
happy	-4004
ieved	-4005
ified	-4006
ishop	-4007
isper	-4008
olute	-4009
orset	-4010
think	-4011
ument	-4012
vours	-4013
▁Amen	-4014
▁Comm	-4015
▁Dear	-4016
▁Four	-4017
▁Jack	-4018
▁Long	-4019
▁Page	-4020
▁Post	-4021
▁ROSS	-4022
▁Sold	-4023
▁bare	-4024
▁boar	-4025
▁bott	-4026
▁cock	-4027
▁conc	-4028
▁east	-4029
▁fame	-4030
▁grey	-4031
▁host	-4032
▁isle	-4033
▁mere	-4034
▁mile	-4035
▁mill	-4036
▁odds	-4037
▁qual	-4038
▁repe	-4039
▁ring	-4040
▁rule	-4041
▁shun	-4042
▁sink	-4043
▁sins	-4044
▁slay	-4045
▁stol	-4046
▁test	-4047
▁virg	-4048
▁wait	-4049
▁worn	-4050
chance	-4051
ctions	-4052
idence	-4053
ourage	-4054
strous	-4055
uteous	-4056
▁Lucio	-4057
▁March	-4058
▁Those	-4059
▁Widow	-4060
▁Young	-4061
▁alter	-4062
▁block	-4063
▁blush	-4064
▁brain	-4065
▁cease	-4066
▁drops	-4067
▁drums	-4068
▁flies	-4069
▁frame	-4070
▁grows	-4071
▁journ	-4072
▁knife	-4073
▁leads	-4074
▁maint	-4075
▁meant	-4076
▁oppos	-4077
▁realm	-4078
▁rogue	-4079
▁scene	-4080
▁scope	-4081
▁seize	-4082
▁shape	-4083
▁slept	-4084
▁spite	-4085
▁strew	-4086
▁terms	-4087
▁thief	-4088
▁trade	-4089
▁trick	-4090
▁vault	-4091
▁venom	-4092
▁wants	-4093
▁winds	-4094
▁write	-4095
ination	-4096
ression	-4097
▁DORCAS	-4098
▁Dorset	-4099
▁Exeter	-4100
▁Naples	-4101
▁Volsce	-4102
▁Worthy	-4103
▁absent	-4104
▁accord	-4105
▁advers	-4106
▁armour	-4107
▁behalf	-4108
▁brings	-4109
▁camest	-4110
▁choler	-4111
▁comest	-4112
▁compan	-4113
▁dagger	-4114
▁degree	-4115
▁direct	-4116
▁enmity	-4117
▁freely	-4118
▁houses	-4119
▁imposs	-4120
▁intell	-4121
▁island	-4122
▁maiden	-4123
▁nought	-4124
▁powers	-4125
▁praise	-4126
▁purcha	-4127
▁repair	-4128
▁serves	-4129
▁smooth	-4130
▁NORFOLK	-4131
▁Whither	-4132
▁apprehe	-4133
▁captain	-4134
▁compass	-4135
▁disdain	-4136
▁earnest	-4137
▁fathers	-4138
▁granted	-4139
▁hateful	-4140
▁instant	-4141
▁manners	-4142
▁passage	-4143
▁passion	-4144
▁privile	-4145
▁sceptre	-4146
▁seeming	-4147
▁torment	-4148
▁unknown	-4149
▁weather	-4150
▁approach	-4151
▁consider	-4152
▁contract	-4153
▁deserves	-4154
▁friendly	-4155
▁glorious	-4156
▁increase	-4157
▁reverend	-4158
▁untimely	-4159
▁Boatswain	-4160
▁Gentlemen	-4161
▁contented	-4162
▁monstrous	-4163
▁respected	-4164
▁suspicion	-4165
▁particular	-4166
▁prosperous	-4167
▁resolution	-4168
▁treacherous	-4169
GH	-4170
NS	-4171
RR	-4172
fl	-4173
God	-4174
NSO	-4175
SET	-4176
elt	-4177
iny	-4178
kin	-4179
ped	-4180
rey	-4181
ric	-4182
uce	-4183
▁Se	-4184
▁Ye	-4185
▁da	-4186
RREL	-4187
ades	-4188
ales	-4189
atcl	-4190
erns	-4191
fret	-4192
iate	-4193
iven	-4194
just	-4195
oral	-4196
rain	-4197
reme	-4198
ruly	-4199
▁ALO	-4200
▁Ber	-4201
▁Bra	-4202
▁Ire	-4203
▁Lau	-4204
▁Mil	-4205
▁Pat	-4206
▁Rom	-4207
▁Son	-4208
▁dig	-4209
▁dri	-4210
▁ens	-4211
▁fig	-4212
▁glo	-4213
▁ing	-4214
▁jew	-4215
▁rap	-4216
▁spr	-4217
▁squ	-4218
ERDIN	-4219
aline	-4220
ances	-4221
andal	-4222
ature	-4223
ember	-4224
raced	-4225
▁Came	-4226
▁Down	-4227
▁Play	-4228
▁Save	-4229
▁Stri	-4230
▁Supp	-4231
▁able	-4232
▁bird	-4233
▁braw	-4234
▁bury	-4235
▁chat	-4236
▁clam	-4237
▁furn	-4238
▁lark	-4239
▁lion	-4240
▁melt	-4241
▁nobl	-4242
▁perj	-4243
▁puts	-4244
▁roar	-4245
▁ruth	-4246
▁spur	-4247
▁suck	-4248
▁tame	-4249
▁tide	-4250
▁vows	-4251
▁wept	-4252
▁About	-4253
▁Bring	-4254
▁Froth	-4255
▁GREEN	-4256
▁Ghost	-4257
▁Hunts	-4258
▁Ratcl	-4259
▁Titus	-4260
▁Until	-4261
▁abhor	-4262
▁adver	-4263
▁affli	-4264
▁alike	-4265
▁avoid	-4266
▁beard	-4267
▁begun	-4268
▁boots	-4269
▁build	-4270
▁catch	-4271
▁conce	-4272
▁daily	-4273
▁dress	-4274
▁dying	-4275
▁elder	-4276
▁fears	-4277
▁finds	-4278
▁flatt	-4279
▁haply	-4280
▁hasty	-4281
▁holds	-4282
▁lusty	-4283
▁nobly	-4284
▁north	-4285
▁parli	-4286
▁patri	-4287
▁peers	-4288
▁press	-4289
▁provo	-4290
▁purse	-4291
▁raise	-4292
▁recom	-4293
▁revol	-4294
▁sends	-4295
▁south	-4296
▁stamp	-4297
▁study	-4298
▁swell	-4299
▁tells	-4300
▁third	-4301
▁thorn	-4302
▁urged	-4303
▁veins	-4304
▁waste	-4305
▁witch	-4306
▁AEdile	-4307
▁ALONSO	-4308
▁DORSET	-4309
▁FERDIN	-4310
▁Romans	-4311
▁TYRREL	-4312
▁Thanks	-4313
▁aboard	-4314
▁advice	-4315
▁amazed	-4316
▁county	-4317
▁darest	-4318
▁disper	-4319
▁estate	-4320
▁famous	-4321
▁gently	-4322
▁giving	-4323
▁grieve	-4324
▁groans	-4325
▁hanged	-4326
▁hardly	-4327
▁kindly	-4328
▁lovely	-4329
▁muster	-4330
▁parent	-4331
▁pieces	-4332
▁profit	-4333
▁rascal	-4334
▁rebell	-4335
▁record	-4336
▁season	-4337
▁silent	-4338
▁single	-4339
▁smiles	-4340
▁taught	-4341
▁thrice	-4342
▁unless	-4343
▁virgin	-4344
▁wealth	-4345
▁worthi	-4346
▁Conspir	-4347
▁Ireland	-4348
▁Pomfret	-4349
▁Sicilia	-4350
▁Soldier	-4351
▁accused	-4352
▁arrived	-4353
▁assured	-4354
▁bearing	-4355
▁bethink	-4356
▁charged	-4357
▁conceit	-4358
▁conduct	-4359
▁current	-4360
▁destroy	-4361
▁enforce	-4362
▁forbear	-4363
▁garland	-4364
▁journey	-4365
▁soundly	-4366
▁special	-4367
▁streets	-4368
▁warlike	-4369
▁whereof	-4370
▁whisper	-4371
▁willing	-4372
▁wrought	-4373
▁Huntsman	-4374
▁Ratcliff	-4375
▁Rosaline	-4376
▁circumst	-4377
▁constant	-4378
▁greatest	-4379
▁grievous	-4380
▁maintain	-4381
▁perforce	-4382
▁revenged	-4383
▁shoulder	-4384
▁supposed	-4385
▁FERDINAND	-4386
▁afternoon	-4387
▁committed	-4388
▁messenger	-4389
▁perpetual	-4390
▁protector	-4391
▁sanctuary	-4392
▁willingly	-4393
▁affections	-4394
▁commission	-4395
▁parliament	-4396
▁instruments	-4397
▁imprisonment	-4398
Th	-4399
gl	-4400
ib	-4401
pr	-4402
zz	-4403
▁z	-4404
;--	-4405
LIS	-4406
aly	-4407
ams	-4408
cei	-4409
con	-4410
dig	-4411
eat	-4412
gar	-4413
icy	-4414
ipe	-4415
ipp	-4416
ker	-4417
law	-4418
nal	-4419
nty	-4420
rac	-4421
ser	-4422
uch	-4423
ulf	-4424
upt	-4425
vet	-4426
▁Fo	-4427
▁Ho	-4428
▁Sm	-4429
▁Vi	-4430
▁fi	-4431
▁sy	-4432
aces	-4433
aded	-4434
ages	-4435
alis	-4436
ater	-4437
clam	-4438
deem	-4439
eder	-4440
enna	-4441
erby	-4442
erer	-4443
esar	-4444
fall	-4445
grim	-4446
iety	-4447
llen	-4448
more	-4449
mory	-4450
omen	-4451
onci	-4452
owry	-4453
pass	-4454
roll	-4455
rrel	-4456
ties	-4457
time	-4458
tled	-4459
uing	-4460
uten	-4461
vior	-4462
▁Acc	-4463
▁Ben	-4464
▁Bus	-4465
▁Min	-4466
▁Six	-4467
▁Tar	-4468
▁ach	-4469
▁ago	-4470
▁apt	-4471
▁dim	-4472
▁fun	-4473
▁hie	-4474
▁hor	-4475
▁lin	-4476
▁mel	-4477
▁mir	-4478
▁oak	-4479
▁pot	-4480
▁sal	-4481
▁sue	-4482
▁une	-4483
▁ves	-4484
Twere	-4485
aming	-4486
ative	-4487
erity	-4488
ested	-4489
etite	-4490
faced	-4491
forth	-4492
groom	-4493
harge	-4494
ierce	-4495
ignty	-4496
orted	-4497
osing	-4498
ouchs	-4499
ourse	-4500
shire	-4501
ulate	-4502
ullus	-4503
▁Anti	-4504
▁Cond	-4505
▁Conf	-4506
▁Dare	-4507
▁Draw	-4508
▁aunt	-4509
▁bade	-4510
▁begu	-4511
▁boys	-4512
▁cere	-4513
▁cher	-4514
▁clim	-4515
▁feet	-4516
▁food	-4517
▁fors	-4518
▁frow	-4519
▁helm	-4520
▁holp	-4521
▁horn	-4522
▁inqu	-4523
▁lent	-4524
▁mult	-4525
▁nail	-4526
▁port	-4527
▁rare	-4528
▁reck	-4529
▁rejo	-4530
▁rust	-4531
▁salt	-4532
▁sees	-4533
▁sell	-4534
▁sets	-4535
▁sire	-4536
▁snow	-4537
▁sore	-4538
▁sple	-4539
▁stro	-4540
▁tall	-4541
▁task	-4542
▁unst	-4543
▁whip	-4544
▁wide	-4545
▁wing	-4546
▁yoke	-4547
▁yond	-4548
eeming	-4549
father	-4550
forced	-4551
semble	-4552
soever	-4553
▁Derby	-4554
▁Makes	-4555
▁Milan	-4556
▁Noble	-4557
▁Salis	-4558
▁abide	-4559
▁agree	-4560
▁alack	-4561
▁below	-4562
▁blunt	-4563
▁books	-4564
▁brace	-4565
▁chase	-4566
▁confe	-4567
▁corre	-4568
▁craft	-4569
▁diffe	-4570
▁equal	-4571
▁event	-4572
▁exerc	-4573
▁fancy	-4574
▁fires	-4575
▁flood	-4576
▁habit	-4577
▁image	-4578
▁manif	-4579
▁merit	-4580
▁newly	-4581
▁oaths	-4582
▁pitch	-4583
▁pound	-4584
▁prett	-4585
▁prick	-4586
▁regal	-4587
▁ruled	-4588
▁smell	-4589
▁sooth	-4590
▁stabb	-4591
▁sting	-4592
▁stopp	-4593
▁stout	-4594
▁stret	-4595
▁tarry	-4596
▁twain	-4597
▁weeps	-4598
▁wrink	-4599
ancholy	-4600
itation	-4601
ruction	-4602
utenant	-4603
▁Caesar	-4604
▁Cannot	-4605
▁Fourth	-4606
▁Marian	-4607
▁Rather	-4608
▁Tyrrel	-4609
▁Vienna	-4610
▁appeal	-4611
▁assure	-4612
▁ballad	-4613
▁barren	-4614
▁beasts	-4615
▁betray	-4616
▁caught	-4617
▁charac	-4618
▁deceit	-4619
▁disple	-4620
▁fairer	-4621
▁forced	-4622
▁graves	-4623
▁knaves	-4624
▁length	-4625
▁mouths	-4626
▁native	-4627
▁partly	-4628
▁points	-4629
▁raised	-4630
▁redeem	-4631
▁regard	-4632
▁resist	-4633
▁saying	-4634
▁secure	-4635
▁shield	-4636
▁slaves	-4637
▁stroke	-4638
▁surely	-4639
▁unjust	-4640
▁unkind	-4641
▁vessel	-4642
▁waking	-4643
▁Proceed	-4644
▁besides	-4645
▁betimes	-4646
▁commons	-4647
▁complex	-4648
▁defence	-4649
▁descend	-4650
▁desires	-4651
▁dignity	-4652
▁fairest	-4653
▁fashion	-4654
▁feeling	-4655
▁forfeit	-4656
▁forgive	-4657
▁froward	-4658
▁parting	-4659
▁pilgrim	-4660
▁reconci	-4661
▁substit	-4662
▁suspect	-4663
▁tempest	-4664
▁tremble	-4665
▁trumpet	-4666
▁tyranny	-4667
▁unhappy	-4668
▁virtues	-4669
▁accident	-4670
▁alliance	-4671
▁although	-4672
▁apparent	-4673
▁appetite	-4674
▁breathed	-4675
▁contempt	-4676
▁devotion	-4677
▁disgrace	-4678
▁exchange	-4679
▁faithful	-4680
▁forswear	-4681
▁mistrust	-4682
▁obedient	-4683
▁offended	-4684
▁penitent	-4685
▁powerful	-4686
▁renowned	-4687
▁sickness	-4688
▁standing	-4689
▁treasure	-4690
▁weakness	-4691
▁Salisbury	-4692
▁according	-4693
▁beholding	-4694
▁complaint	-4695
▁falsehood	-4696
▁household	-4697
▁rebellion	-4698
▁reverence	-4699
▁wholesome	-4700
▁bridegroom	-4701
▁conference	-4702
▁determined	-4703
▁impossible	-4704
▁melancholy	-4705
▁patricians	-4706
▁sovereignty	-4707
▁entertainment	-4708
Ay	-4709
DR	-4710
IT	-4711
gn	-4712
ns	-4713
rs	-4714
xe	-4715
.--	-4716
EOM	-4717
LOU	-4718
bod	-4719
com	-4720
eve	-4721
iam	-4722
nes	-4723
rat	-4724
tic	-4725
uit	-4726
▁Af	-4727
▁Aw	-4728
▁Kn	-4729
▁Ra	-4730
GHBY	-4731
ROTH	-4732
ases	-4733
bear	-4734
cary	-4735
cate	-4736
cies	-4737
dita	-4738
fold	-4739
ical	-4740
illy	-4741
inct	-4742
irty	-4743
iter	-4744
ivil	-4745
ized	-4746
long	-4747
maid	-4748
mong	-4749
onst	-4750
sell	-4751
teen	-4752
ulch	-4753
weal	-4754
wife	-4755
▁ADR	-4756
▁Cle	-4757
▁Cry	-4758
▁Cur	-4759
▁Get	-4760
▁Him	-4761
▁Lie	-4762
▁Thr	-4763
▁Val	-4764
▁Ven	-4765
▁WIL	-4766
▁axe	-4767
▁bir	-4768
▁bon	-4769
▁deb	-4770
▁eng	-4771
▁jot	-4772
▁lap	-4773
▁nap	-4774
▁ope	-4775
▁ped	-4776
▁pee	-4777
▁spl	-4778
▁spy	-4779
▁ste	-4780
▁suc	-4781
▁tim	-4782
▁var	-4783
▁vel	-4784
▁vol	-4785
▁wid	-4786
▁yes	-4787
aning	-4788
earer	-4789
erves	-4790
herit	-4791
icles	-4792
imble	-4793
irect	-4794
itten	-4795
omach	-4796
ories	-4797
othes	-4798
otted	-4799
stery	-4800
uries	-4801
ushes	-4802
▁Anon	-4803
▁Betw	-4804
▁Each	-4805
▁Fort	-4806
▁Hail	-4807
▁Lart	-4808
▁Many	-4809
▁Soft	-4810
▁Time	-4811
▁Tush	-4812
▁Vill	-4813
▁blem	-4814
▁bran	-4815
▁bred	-4816
▁buck	-4817
▁coff	-4818
▁cost	-4819
▁curt	-4820
▁deck	-4821
▁decl	-4822
▁edge	-4823
▁fact	-4824
▁fawn	-4825
▁fish	-4826
▁gaze	-4827
▁grat	-4828
▁iron	-4829
▁knot	-4830
▁lift	-4831
▁line	-4832
▁mess	-4833
▁mood	-4834
▁rail	-4835
▁rain	-4836
▁reap	-4837
▁ride	-4838
▁ripe	-4839
▁sham	-4840
▁shri	-4841
▁slip	-4842
▁spit	-4843
▁tail	-4844
▁toad	-4845
▁toil	-4846
▁tres	-4847
▁wake	-4848
▁west	-4849
▁whit	-4850
▁wink	-4851
bation	-4852
itable	-4853
seless	-4854
▁Among	-4855
▁Bushy	-4856
▁CLEOM	-4857
▁Didst	-4858
▁FROTH	-4859
▁Happy	-4860
▁Italy	-4861
▁Somet	-4862
▁Sound	-4863
▁Uncle	-4864
▁babes	-4865
▁began	-4866
▁burst	-4867
▁chall	-4868
▁civil	-4869
▁coron	-4870
▁counc	-4871
▁disgu	-4872
▁dowry	-4873
▁eagle	-4874
▁estim	-4875
▁hangs	-4876
▁harsh	-4877
▁hated	-4878
▁heirs	-4879
▁human	-4880
▁impat	-4881
▁incen	-4882
▁innoc	-4883
▁liken	-4884
▁lover	-4885
▁marks	-4886
▁minds	-4887
▁mirth	-4888
▁negle	-4889
▁occup	-4890
▁offic	-4891
▁pause	-4892
▁scold	-4893
▁spect	-4894
▁stick	-4895
▁super	-4896
▁swain	-4897
▁takes	-4898
▁taunt	-4899
▁thick	-4900
▁tooth	-4901
▁wager	-4902
▁wakes	-4903
▁warri	-4904
LOUGHBY	-4905
▁ADRIAN	-4906
▁Behold	-4907
▁Better	-4908
▁County	-4909
▁Follow	-4910
▁Return	-4911
▁Tullus	-4912
▁abused	-4913
▁bigger	-4914
▁chaste	-4915
▁craves	-4916
▁dearly	-4917
▁deaths	-4918
▁dismal	-4919
▁fierce	-4920
▁frowns	-4921
▁griefs	-4922
▁infant	-4923
▁keeper	-4924
▁league	-4925
▁lesser	-4926
▁lovest	-4927
▁manage	-4928
▁memory	-4929
▁modest	-4930
▁object	-4931
▁pierce	-4932
▁policy	-4933
▁refuse	-4934
▁remove	-4935
▁repeal	-4936
▁repose	-4937
▁retire	-4938
▁revolt	-4939
▁rights	-4940
▁seldom	-4941
▁served	-4942
▁shrewd	-4943
▁shroud	-4944
▁sights	-4945
▁steeds	-4946
▁subtle	-4947
▁suffic	-4948
▁suitor	-4949
▁sullen	-4950
▁supply	-4951
▁thirty	-4952
▁thread	-4953
▁trusty	-4954
▁uncles	-4955
▁visage	-4956
banished	-4957
othecary	-4958
ouchsafe	-4959
▁Commend	-4960
▁Lartius	-4961
▁Mariana	-4962
▁Perdita	-4963
▁Through	-4964
▁Whether	-4965
▁William	-4966
▁clothes	-4967
▁conceal	-4968
▁confirm	-4969
▁dearest	-4970
▁descent	-4971
▁feather	-4972
▁foreign	-4973
▁gallant	-4974
▁growing	-4975
▁meeting	-4976
▁modesty	-4977
▁mystery	-4978
▁perhaps	-4979
▁plainly	-4980
▁proclam	-4981
▁prophet	-4982
▁redress	-4983
▁remorse	-4984
▁removed	-4985
▁satisfy	-4986
▁scandal	-4987
▁sepulch	-4988
▁shadows	-4989
▁sorrows	-4990
▁strokes	-4991
▁stumble	-4992
▁succeed	-4993
▁sweeter	-4994
▁torture	-4995
▁windows	-4996
▁writing	-4997
▁yielded	-4998
▁younger	-4999
▁absolute	-5000
▁accursed	-5001
▁acquaint	-5002
▁careless	-5003
▁executed	-5004
▁exercise	-5005
▁fourteen	-5006
▁heartily	-5007
▁heavenly	-5008
▁monument	-5009
▁opposite	-5010
▁pleasing	-5011
▁purchase	-5012
▁selfsame	-5013
▁servants	-5014
▁stranger	-5015
▁stronger	-5016
▁trespass	-5017
▁withdraw	-5018
▁wondrous	-5019
▁youngest	-5020
▁CLEOMENES	-5021
▁adventure	-5022
▁appointed	-5023
▁beauteous	-5024
▁determine	-5025
▁direction	-5026
▁extremity	-5027
▁flatterer	-5028
▁greatness	-5029
▁ignorance	-5030
▁infection	-5031
▁mischance	-5032
▁privilege	-5033
▁trembling	-5034
▁WILLOUGHBY	-5035
▁commonweal	-5036
▁countrymen	-5037
▁triumphant	-5038
▁Conspirator	-5039
▁adversaries	-5040
▁executioner	-5041
▁instruction	-5042
EP	-5043
ax	-5044
gy	-5045
we	-5046
ARN	-5047
EPH	-5048
INE	-5049
ann	-5050
app	-5051
aug	-5052
bio	-5053
but	-5054
cue	-5055
esu	-5056
iar	-5057
ips	-5058
mas	-5059
ola	-5060
oon	-5061
owl	-5062
rif	-5063
sey	-5064
sha	-5065
son	-5066
sop	-5067
▁Ap	-5068
▁Gu	-5069
▁Im	-5070
▁Oh	-5071
▁Wr	-5072
▁ah	-5073
▁sn	-5074
AMUS	-5075
aker	-5076
ares	-5077
ased	-5078
athe	-5079
ayed	-5080
bble	-5081
bert	-5082
cels	-5083
ders	-5084
enge	-5085
hern	-5086
hrew	-5087
iced	-5088
icio	-5089
iddy	-5090
iege	-5091
ilth	-5092
ital	-5093
ived	-5094
iver	-5095
lied	-5096
nken	-5097
oops	-5098
oubt	-5099
rage	-5100
raid	-5101
rank	-5102
rity	-5103
sire	-5104
some	-5105
ueen	-5106
▁Att	-5107
▁Bre	-5108
▁Bur	-5109
▁Del	-5110
▁Ely	-5111
▁Fal	-5112
▁Imp	-5113
▁Old	-5114
▁Pri	-5115
▁RUT	-5116
▁Sur	-5117
▁Wed	-5118
▁Woe	-5119
▁ale	-5120
▁bag	-5121
▁cat	-5122
▁fix	-5123
▁hig	-5124
▁hom	-5125
▁hop	-5126
▁ink	-5127
▁lur	-5128
▁mil	-5129
▁net	-5130
▁orn	-5131
▁sav	-5132
▁tig	-5133
▁tou	-5134
▁tro	-5135
▁unm	-5136
▁yon	-5137
ables	-5138
acles	-5139
agues	-5140
ainty	-5141
ansom	-5142
ardel	-5143
atest	-5144
athed	-5145
cheth	-5146
chief	-5147
eping	-5148
ering	-5149
hamed	-5150
icate	-5151
inate	-5152
ision	-5153
itiff	-5154
keley	-5155
ontes	-5156
orney	-5157
pense	-5158
ratch	-5159
rible	-5160
twill	-5161
unate	-5162
▁Anne	-5163
▁BARN	-5164
▁Cast	-5165
▁Dido	-5166
▁Disp	-5167
▁Does	-5168
▁Fair	-5169
▁Find	-5170
▁Gree	-5171
▁Hang	-5172
▁Perc	-5173
▁Send	-5174
▁Vaug	-5175
▁Wife	-5176
▁ages	-5177
▁alms	-5178
▁bank	-5179
▁bere	-5180
▁bill	-5181
▁bore	-5182
▁butt	-5183
▁caps	-5184
▁coll	-5185
▁cram	-5186
▁crow	-5187
▁date	-5188
▁deaf	-5189
▁dogs	-5190
▁dove	-5191
▁drag	-5192
▁eter	-5193
▁exam	-5194
▁fant	-5195
▁flow	-5196
▁fret	-5197
▁godd	-5198
▁grew	-5199
▁hare	-5200
▁heat	-5201
▁hers	-5202
▁hind	-5203
▁hire	-5204
▁laws	-5205
▁lets	-5206
▁luck	-5207
▁main	-5208
▁neat	-5209
▁nest	-5210
▁nice	-5211
▁numb	-5212
▁nupt	-5213
▁page	-5214
▁paid	-5215
▁path	-5216
▁pear	-5217
▁pern	-5218
▁prep	-5219
▁rank	-5220
▁serp	-5221
▁sirs	-5222
▁subd	-5223
▁thie	-5224
▁thin	-5225
▁tren	-5226
▁trif	-5227
▁unfe	-5228
▁unse	-5229
▁urge	-5230
▁vent	-5231
▁ward	-5232
▁wolf	-5233
▁wore	-5234
▁worm	-5235
▁zeal	-5236
ARDINE	-5237
IDAMUS	-5238
ceives	-5239
ending	-5240
ercing	-5241
fellow	-5242
harged	-5243
headed	-5244
ilence	-5245
ingers	-5246
master	-5247
orough	-5248
pardon	-5249
scalus	-5250
ushing	-5251
▁Elbow	-5252
▁Grace	-5253
▁Green	-5254
▁Hadst	-5255
▁Licio	-5256
▁Prove	-5257
▁Queen	-5258
▁Shore	-5259
▁abuse	-5260
▁amiss	-5261
▁angel	-5262
▁appea	-5263
▁backs	-5264
▁bands	-5265
▁beaut	-5266
▁beget	-5267
▁birds	-5268
▁blast	-5269
▁boast	-5270
▁bread	-5271
▁breed	-5272
▁brown	-5273
▁burns	-5274
▁burnt	-5275
▁charm	-5276
▁cheap	-5277
▁dower	-5278
▁dozen	-5279
▁flint	-5280
▁forty	-5281
▁freed	-5282
▁giddy	-5283
▁goods	-5284
▁grain	-5285
▁heels	-5286
▁honey	-5287
▁jewel	-5288
▁lance	-5289
▁limbs	-5290
▁limit	-5291
▁lower	-5292
▁lying	-5293
▁metal	-5294
▁moral	-5295
▁moves	-5296
▁noted	-5297
▁price	-5298
▁prime	-5299
▁reply	-5300
▁share	-5301
▁shook	-5302
▁sings	-5303
▁spoil	-5304
▁stale	-5305
▁steps	-5306
▁stern	-5307
▁straw	-5308
▁suits	-5309
▁sweat	-5310
▁swore	-5311
▁thumb	-5312
▁torch	-5313
▁troop	-5314
▁trunk	-5315
▁waves	-5316
▁wills	-5317
ribunes	-5318
▁Cambio	-5319
▁Making	-5320
▁Strike	-5321
▁Surrey	-5322
▁Whiles	-5323
▁arrest	-5324
▁befall	-5325
▁bestow	-5326
▁borrow	-5327
▁bottom	-5328
▁contro	-5329
▁covert	-5330
▁escape	-5331
▁fardel	-5332
▁graced	-5333
▁guests	-5334
▁haught	-5335
▁hungry	-5336
▁injury	-5337
▁joints	-5338
▁likely	-5339
▁liking	-5340
▁livery	-5341
▁looked	-5342
▁meddle	-5343
▁minute	-5344
▁months	-5345
▁parted	-5346
▁places	-5347
▁rapier	-5348
▁rebels	-5349
▁restra	-5350
▁sacrif	-5351
▁saints	-5352
▁senses	-5353
▁shapes	-5354
▁shines	-5355
▁shrift	-5356
▁sooner	-5357
▁sought	-5358
▁spleen	-5359
▁statue	-5360
▁strive	-5361
▁thirst	-5362
▁transp	-5363
▁troops	-5364
▁tyrann	-5365
▁unfold	-5366
▁velvet	-5367
▁weapon	-5368
▁wooing	-5369
▁yields	-5370
▁Another	-5371
▁Escalus	-5372
▁Fortune	-5373
▁Justice	-5374
▁Leontes	-5375
▁RUTLAND	-5376
▁Vaughan	-5377
▁Villain	-5378
▁Whereto	-5379
▁actions	-5380
▁advised	-5381
▁affords	-5382
▁burning	-5383
▁caitiff	-5384
▁careful	-5385
▁carried	-5386
▁censure	-5387
▁cherish	-5388
▁clamour	-5389
▁conjure	-5390
▁disease	-5391
▁dismiss	-5392
▁drunken	-5393
▁execute	-5394
▁fearing	-5395
▁happily	-5396
▁imagine	-5397
▁liberal	-5398
▁madness	-5399
▁misfort	-5400
▁monarch	-5401
▁monster	-5402
▁nuptial	-5403
▁offices	-5404
▁peevish	-5405
▁pitiful	-5406
▁praises	-5407
▁process	-5408
▁putting	-5409
▁rejoice	-5410
▁royalty	-5411
▁sadness	-5412
▁scatter	-5413
▁shallow	-5414
▁stomach	-5415
▁stretch	-5416
▁suitors	-5417
▁tapster	-5418
▁telling	-5419
▁thereby	-5420
▁upright	-5421
▁wanting	-5422
▁whereon	-5423
▁written	-5424
▁Although	-5425
▁Berkeley	-5426
▁Laurence	-5427
▁Remember	-5428
▁anointed	-5429
▁behavior	-5430
▁bitterly	-5431
▁bleeding	-5432
▁blessing	-5433
▁childish	-5434
▁conceive	-5435
▁counsell	-5436
▁flourish	-5437
▁immortal	-5438
▁inclined	-5439
▁lengthen	-5440
▁likeness	-5441
▁midnight	-5442
▁nobility	-5443
▁officers	-5444
▁ruthless	-5445
▁sleeping	-5446
▁somewhat	-5447
▁thinking	-5448
▁tomorrow	-5449
▁violence	-5450
▁warriors	-5451
▁Methought	-5452
▁Wherefore	-5453
▁Wiltshire	-5454
▁apprehend	-5455
▁breathing	-5456
▁challenge	-5457
▁character	-5458
▁companion	-5459
▁courteous	-5460
▁discourse	-5461
▁dispersed	-5462
▁forthwith	-5463
▁grandsire	-5464
▁lightning	-5465
▁methought	-5466
▁necessity	-5467
▁prettiest	-5468
▁prevented	-5469
▁senseless	-5470
▁sepulchre	-5471
▁substance	-5472
▁ARCHIDAMUS	-5473
▁BARNARDINE	-5474
▁churchyard	-5475
▁coronation	-5476
▁pernicious	-5477
▁possession	-5478
▁proportion	-5479
▁reputation	-5480
▁succession	-5481
▁threatening	-5482
▁commonwealth	-5483
▁intelligence	-5484
▁proclamation	-5485
AG	-5486
IR	-5487
OT	-5488
ZW	-5489
ta	-5490
wd	-5491
yc	-5492
BAN	-5493
CRO	-5494
EOR	-5495
MOR	-5496
acy	-5497
adv	-5498
arm	-5499
asp	-5500
bey	-5501
cri	-5502
dal	-5503
ded	-5504
dst	-5505
got	-5506
hen	-5507
ndy	-5508
oes	-5509
rog	-5510
sen	-5511
uns	-5512
zed	-5513
▁Em	-5514
▁Ga	-5515
▁Qu	-5516
▁fr	-5517
▁gn	-5518
AGOT	-5519
ATER	-5520
ITZW	-5521
ably	-5522
aged	-5523
agot	-5524
ardy	-5525
cket	-5526
cure	-5527
ersu	-5528
foot	-5529
give	-5530
here	-5531
hilo	-5532
hire	-5533
iban	-5534
iece	-5535
igon	-5536
itch	-5537
join	-5538
kind	-5539
lace	-5540
olks	-5541
oned	-5542
rald	-5543
reet	-5544
rich	-5545
riel	-5546
roof	-5547
spur	-5548
that	-5549
ulls	-5550
umed	-5551
upid	-5552
ushi	-5553
utch	-5554
vied	-5555
wing	-5556
▁Add	-5557
▁CAR	-5558
▁ELY	-5559
▁Fit	-5560
▁Gra	-5561
▁Hie	-5562
▁Hon	-5563
▁Mis	-5564
▁SIR	-5565
▁Saw	-5566
▁Sly	-5567
▁Sus	-5568
▁Ten	-5569
▁Wit	-5570
▁aud	-5571
▁bay	-5572
▁bol	-5573
▁bru	-5574
▁cab	-5575
▁cop	-5576
▁dem	-5577
▁fin	-5578
▁gam	-5579
▁gap	-5580
▁ice	-5581
▁inv	-5582
▁leg	-5583
▁lun	-5584
▁mat	-5585
▁mew	-5586
▁nar	-5587
▁pop	-5588
▁por	-5589
▁rag	-5590
▁rue	-5591
▁sau	-5592
▁sca	-5593
▁sed	-5594
▁una	-5595
▁wax	-5596
▁wet	-5597
CROOP	-5598
ELAND	-5599
EORGE	-5600
EPHEN	-5601
LIBAN	-5602
LISLE	-5603
alter	-5604
arers	-5605
blood	-5606
chers	-5607
emper	-5608
erest	-5609
guard	-5610
gundy	-5611
ickle	-5612
igent	-5613
igned	-5614
ilful	-5615
iliar	-5616
iners	-5617
iring	-5618
ishes	-5619
light	-5620
mbers	-5621
olved	-5622
order	-5623
oured	-5624
ranch	-5625
reant	-5626
shall	-5627
sophy	-5628
ulous	-5629
verty	-5630
vided	-5631
volio	-5632
which	-5633
▁Capt	-5634
▁Desp	-5635
▁Dian	-5636
▁Else	-5637
▁Ever	-5638
▁Five	-5639
▁Full	-5640
▁Gard	-5641
▁Jesu	-5642
▁Live	-5643
▁Much	-5644
▁Name	-5645
▁Part	-5646
▁Virt	-5647
▁WEST	-5648
▁aged	-5649
▁also	-5650
▁anch	-5651
▁balm	-5652
▁beef	-5653
▁bell	-5654
▁bent	-5655
▁brat	-5656
▁busy	-5657
▁buzz	-5658
▁cent	-5659
▁coat	-5660
▁cook	-5661
▁drew	-5662
▁felt	-5663
▁flat	-5664
▁fray	-5665
▁fres	-5666
▁goss	-5667
▁hail	-5668
▁herd	-5669
▁hist	-5670
▁hoar	-5671
▁hurl	-5672
▁keys	-5673
▁lect	-5674
▁lewd	-5675
▁load	-5676
▁lock	-5677
▁lour	-5678
▁mars	-5679
▁misc	-5680
▁mour	-5681
▁omit	-5682
▁owes	-5683
▁pace	-5684
▁palm	-5685
▁pent	-5686
▁pick	-5687
▁pict	-5688
▁pill	-5689
▁pomp	-5690
▁push	-5691
▁rack	-5692
▁rate	-5693
▁rear	-5694
▁rend	-5695
▁robb	-5696
▁sess	-5697
▁shel	-5698
▁shop	-5699
▁shru	-5700
▁smil	-5701
▁soci	-5702
▁soil	-5703
▁surp	-5704
▁tack	-5705
▁term	-5706
▁tied	-5707
▁tops	-5708
▁tree	-5709
▁trim	-5710
▁unre	-5711
▁vast	-5712
▁wave	-5713
▁week	-5714
▁wipe	-5715
action	-5716
egrity	-5717
idered	-5718
igonus	-5719
isting	-5720
nesday	-5721
owards	-5722
spurgh	-5723
tering	-5724
ventry	-5725
▁Above	-5726
▁Adieu	-5727
▁BAGOT	-5728
▁Bagot	-5729
▁Blunt	-5730
▁Canst	-5731
▁Comes	-5732
▁EXTON	-5733
▁FITZW	-5734
▁False	-5735
▁Persu	-5736
▁Raven	-5737
▁Shalt	-5738
▁Swear	-5739
▁Thine	-5740
▁Trust	-5741
▁Welsh	-5742
▁Women	-5743
▁Yield	-5744
▁abund	-5745
▁accom	-5746
▁alleg	-5747
▁amain	-5748
▁ambit	-5749
▁apace	-5750
▁array	-5751
▁beams	-5752
▁beats	-5753
▁clock	-5754
▁cozen	-5755
▁crook	-5756
▁disin	-5757
▁divor	-5758
▁droop	-5759
▁eaten	-5760
▁eight	-5761
▁ended	-5762
▁exped	-5763
▁falls	-5764
▁fever	-5765
▁fiend	-5766
▁frail	-5767
▁frank	-5768
▁frost	-5769
▁gains	-5770
▁gifts	-5771
▁goose	-5772
▁helps	-5773
▁imper	-5774
▁infer	-5775
▁insol	-5776
▁lambs	-5777
▁likes	-5778
▁lions	-5779
▁lists	-5780
▁merri	-5781
▁mould	-5782
▁ought	-5783
▁paint	-5784
▁petty	-5785
▁philo	-5786
▁plebe	-5787
▁purge	-5788
▁raven	-5789
▁reach	-5790
▁revel	-5791
▁robes	-5792
▁rouse	-5793
▁saved	-5794
▁ships	-5795
▁shoes	-5796
▁sides	-5797
▁silly	-5798
▁skill	-5799
▁slipp	-5800
▁stays	-5801
▁stead	-5802
▁stops	-5803
▁tired	-5804
▁towns	-5805
▁train	-5806
▁waked	-5807
▁wears	-5808
ceiving	-5809
isement	-5810
iveness	-5811
mediate	-5812
onstant	-5813
umbling	-5814
▁Appear	-5815
▁Curtis	-5816
▁GEORGE	-5817
▁Gaoler	-5818
▁Minola	-5819
▁Nature	-5820
▁SCROOP	-5821
▁Things	-5822
▁Venice	-5823
▁afraid	-5824
▁amends	-5825
▁aspect	-5826
▁attain	-5827
▁beaten	-5828
▁betide	-5829
▁boldly	-5830
▁bowels	-5831
▁brains	-5832
▁bridal	-5833
▁cheque	-5834
▁chosen	-5835
▁cloudy	-5836
▁couple	-5837
▁dearer	-5838
▁depose	-5839
▁detest	-5840
▁eldest	-5841
▁eleven	-5842
▁errand	-5843
▁esteem	-5844
▁except	-5845
▁falcon	-5846
▁figure	-5847
▁fondly	-5848
▁gladly	-5849
▁hazard	-5850
▁height	-5851
▁herald	-5852
▁homely	-5853
▁kisses	-5854
▁landed	-5855
▁lately	-5856
▁livest	-5857
▁lovers	-5858
▁marvel	-5859
▁middle	-5860
▁narrow	-5861
▁nights	-5862
▁notice	-5863
▁obsequ	-5864
▁prefer	-5865
▁prodig	-5866
▁prompt	-5867
▁proved	-5868
▁purple	-5869
▁ransom	-5870
▁reckon	-5871
▁riches	-5872
▁savage	-5873
▁seated	-5874
▁seized	-5875
▁severe	-5876
▁signal	-5877
▁slight	-5878
▁sounds	-5879
▁spread	-5880
▁stolen	-5881
▁storms	-5882
▁strict	-5883
▁swears	-5884
▁takest	-5885
▁testim	-5886
▁tricks	-5887
▁troubl	-5888
▁vanity	-5889
▁varlet	-5890
▁wisely	-5891
MORELAND	-5892
perience	-5893
▁Becomes	-5894
▁CALIBAN	-5895
▁Caliban	-5896
▁Captain	-5897
▁Comfort	-5898
▁Neither	-5899
▁Perhaps	-5900
▁Prepare	-5901
▁STEPHEN	-5902
▁Towards	-5903
▁Whereof	-5904
▁amongst	-5905
▁amorous	-5906
▁ashamed	-5907
▁bidding	-5908
▁blemish	-5909
▁ceremon	-5910
▁cheerly	-5911
▁conclud	-5912
▁consequ	-5913
▁couldst	-5914
▁designs	-5915
▁earthly	-5916
▁example	-5917
▁extreme	-5918
▁fantast	-5919
▁favours	-5920
▁fingers	-5921
▁freedom	-5922
▁furnish	-5923
▁ghostly	-5924
▁goddess	-5925
▁grandam	-5926
▁grieved	-5927
▁grieves	-5928
▁heavier	-5929
▁holding	-5930
▁hopeful	-5931
▁kinsmen	-5932
▁knowing	-5933
▁learned	-5934
▁marvell	-5935
▁members	-5936
▁mightst	-5937
▁neglect	-5938
▁ourself	-5939
▁outrage	-5940
▁parents	-5941
▁parties	-5942
▁partner	-5943
▁poverty	-5944
▁presume	-5945
▁profane	-5946
▁prophes	-5947
▁provide	-5948
▁restore	-5949
▁retired	-5950
▁scratch	-5951
▁settled	-5952
▁signify	-5953
▁smother	-5954
▁sounded	-5955
▁sweetly	-5956
▁temples	-5957
▁tempted	-5958
▁thieves	-5959
▁travell	-5960
▁weapons	-5961
▁winters	-5962
▁worldly	-5963
▁Benvolio	-5964
▁Burgundy	-5965
▁CARLISLE	-5966
▁Coventry	-5967
▁Gardener	-5968
▁Patience	-5969
▁Proclaim	-5970
▁Tribunes	-5971
▁Withdraw	-5972
▁attorney	-5973
▁bastards	-5974
▁boldness	-5975
▁compound	-5976
▁conclude	-5977
▁confound	-5978
▁conquest	-5979
▁contents	-5980
▁courtier	-5981
▁cowardly	-5982
▁darkness	-5983
▁devilish	-5984
▁entrance	-5985
▁greeting	-5986
▁likewise	-5987
▁merchant	-5988
▁mildness	-5989
▁mutinous	-5990
▁persuade	-5991
▁piercing	-5992
▁preserve	-5993
▁provoked	-5994
▁revenges	-5995
▁speaking	-5996
▁suddenly	-5997
▁thankful	-5998
▁treasons	-5999
▁troubled	-6000
▁usurping	-6001
▁villains	-6002
▁youthful	-6003
▁Antigonus	-6004
▁FITZWATER	-6005
▁Vouchsafe	-6006
▁Wednesday	-6007
▁ambitious	-6008
▁condemned	-6009
▁constable	-6010
▁departure	-6011
▁downright	-6012
▁instantly	-6013
▁integrity	-6014
▁ministers	-6015
▁musicians	-6016
▁nobleness	-6017
▁readiness	-6018
▁reconcile	-6019
▁sentenced	-6020
▁tyrannous	-6021
▁wandering	-6022
▁accusation	-6023
▁acquainted	-6024
▁allegiance	-6025
▁complexion	-6026
▁entreaties	-6027
▁estimation	-6028
▁flattering	-6029
▁lamentable	-6030
▁misfortune	-6031
▁neighbours	-6032
▁occupation	-6033
▁philosophy	-6034
▁pilgrimage	-6035
▁recompense	-6036
▁substitute	-6037
▁sufficient	-6038
▁unkindness	-6039
▁Ravenspurgh	-6040
▁approbation	-6041
▁destruction	-6042
▁WESTMORELAND	-6043
▁circumstance	-6044
▁discontented	-6045
▁satisfaction	-6046
br	-6047
do	-6048
eb	-6049
uc	-6050
ug	-6051
Hic	-6052
amy	-6053
bot	-6054
boy	-6055
cra	-6056
cus	-6057
des	-6058
gea	-6059
gic	-6060
inu	-6061
len	-6062
lor	-6063
low	-6064
off	-6065
ril	-6066
rop	-6067
tin	-6068
uiv	-6069
urb	-6070
uts	-6071
wer	-6072
▁Ac	-6073
▁Er	-6074
▁ug	-6075
What	-6076
alks	-6077
ands	-6078
aped	-6079
back	-6080
bour	-6081
bric	-6082
cest	-6083
ctor	-6084
done	-6085
ella	-6086
eves	-6087
ewks	-6088
gues	-6089
hage	-6090
hand	-6091
hors	-6092
icle	-6093
ifth	-6094
inal	-6095
kest	-6096
lain	-6097
last	-6098
lect	-6099
lier	-6100
made	-6101
nday	-6102
oble	-6103
onio	-6104
orax	-6105
oriz	-6106
oses	-6107
rish	-6108
tied	-6109
ules	-6110
uned	-6111
unis	-6112
vive	-6113
wear	-6114
work	-6115
▁Adv	-6116
▁Aff	-6117
▁Che	-6118
▁Dep	-6119
▁Div	-6120
▁Har	-6121
▁Jup	-6122
▁Mur	-6123
▁Ned	-6124
▁Pem	-6125
▁Rel	-6126
▁Sit	-6127
▁Syc	-6128
▁Tra	-6129
▁ack	-6130
▁afe	-6131
▁ann	-6132
▁ape	-6133
▁ash	-6134
▁bul	-6135
▁dot	-6136
▁eff	-6137
▁fan	-6138
▁fox	-6139
▁fre	-6140
▁hag	-6141
▁key	-6142
▁mas	-6143
▁moe	-6144
▁mom	-6145
▁nod	-6146
▁obs	-6147
▁pow	-6148
▁pup	-6149
▁rhe	-6150
▁rig	-6151
▁rum	-6152
▁sap	-6153
▁sow	-6154
▁thw	-6155
▁tie	-6156
▁vul	-6157
Twixt	-6158
aints	-6159
amity	-6160
asant	-6161
avour	-6162
awful	-6163
aying	-6164
board	-6165
ening	-6166
horse	-6167
iders	-6168
inces	-6169
inies	-6170
inted	-6171
ively	-6172
lance	-6173
longs	-6174
ocate	-6175
oster	-6176
peian	-6177
ption	-6178
roach	-6179
shine	-6180
sooth	-6181
there	-6182
trees	-6183
ually	-6184
uring	-6185
water	-6186
▁ABRA	-6187
▁Best	-6188
▁Bold	-6189
▁Cart	-6190
▁Cont	-6191
▁Dest	-6192
▁Fall	-6193
▁Fell	-6194
▁Foul	-6195
▁Happ	-6196
▁Kent	-6197
▁Kind	-6198
▁Lead	-6199
▁Lend	-6200
▁Lies	-6201
▁Nept	-6202
▁Over	-6203
▁Purs	-6204
▁Read	-6205
▁Scot	-6206
▁Talk	-6207
▁Troy	-6208
▁Wert	-6209
▁West	-6210
▁acts	-6211
▁aims	-6212
▁alar	-6213
▁amaz	-6214
▁baby	-6215
▁bail	-6216
▁bald	-6217
▁blot	-6218
▁blue	-6219
▁bowl	-6220
▁bows	-6221
▁cler	-6222
▁cool	-6223
▁cord	-6224
▁crab	-6225
▁crim	-6226
▁dash	-6227
▁dece	-6228
▁deer	-6229
▁defy	-6230
▁desc	-6231
▁dine	-6232
▁diso	-6233
▁dole	-6234
▁dram	-6235
▁earl	-6236
▁fift	-6237
▁fulf	-6238
▁game	-6239
▁grim	-6240
▁gust	-6241
▁harl	-6242
▁heel	-6243
▁hill	-6244
▁inch	-6245
▁lads	-6246
▁leap	-6247
▁lick	-6248
▁lief	-6249
▁lute	-6250
▁mask	-6251
▁meal	-6252
▁meed	-6253
▁milk	-6254
▁nigh	-6255
▁noon	-6256
▁nort	-6257
▁obsc	-6258
▁pant	-6259
▁peer	-6260
▁perd	-6261
▁pest	-6262
▁plan	-6263
▁pour	-6264
▁race	-6265
▁ranc	-6266
▁rein	-6267
▁roof	-6268
▁runs	-6269
▁rush	-6270
▁sack	-6271
▁shot	-6272
▁silk	-6273
▁sixt	-6274
▁song	-6275
▁stag	-6276
▁summ	-6277
▁terr	-6278
▁torn	-6279
▁trow	-6280
▁undo	-6281
▁vass	-6282
▁veil	-6283
▁vial	-6284
▁welc	-6285
▁yare	-6286
BISHOP	-6287
Zounds	-6288
advent	-6289
aments	-6290
anders	-6291
arried	-6292
attern	-6293
enches	-6294
govern	-6295
iments	-6296
ittany	-6297
lihood	-6298
ossess	-6299
ousins	-6300
rament	-6301
rantic	-6302
twould	-6303
uivant	-6304
ulting	-6305
▁Alban	-6306
▁Ariel	-6307
▁Bound	-6308
▁Break	-6309
▁Cupid	-6310
▁Fetch	-6311
▁Gives	-6312
▁Ready	-6313
▁Teach	-6314
▁Tewks	-6315
▁Thank	-6316
▁Throw	-6317
▁Touch	-6318
▁Truly	-6319
▁Tunis	-6320
▁Twice	-6321
▁aloud	-6322
▁apart	-6323
▁arise	-6324
▁ashes	-6325
▁blaze	-6326
▁bliss	-6327
▁blown	-6328
▁brand	-6329
▁cabin	-6330
▁canop	-6331
▁champ	-6332
▁chose	-6333
▁clean	-6334
▁cloak	-6335
▁coast	-6336
▁cords	-6337
▁crept	-6338
▁crows	-6339
▁crush	-6340
▁cushi	-6341
▁diest	-6342
▁dined	-6343
▁dried	-6344
▁drift	-6345
▁dukes	-6346
▁eager	-6347
▁evils	-6348
▁faced	-6349
▁fleet	-6350
▁flock	-6351
▁folks	-6352
▁fount	-6353
▁front	-6354
▁fully	-6355
▁gaunt	-6356
▁grass	-6357
▁groom	-6358
▁haunt	-6359
▁kites	-6360
▁level	-6361
▁linea	-6362
▁lodge	-6363
▁lowly	-6364
▁mates	-6365
▁medic	-6366
▁midst	-6367
▁model	-6368
▁moody	-6369
▁mouse	-6370
▁murde	-6371
▁nails	-6372
▁named	-6373
▁pearl	-6374
▁pilot	-6375
▁pinch	-6376
▁prate	-6377
▁print	-6378
▁puiss	-6379
▁rests	-6380
▁roses	-6381
▁sadly	-6382
▁score	-6383
▁seeks	-6384
▁shade	-6385
▁shown	-6386
▁slily	-6387
▁spark	-6388
▁spurs	-6389
▁stark	-6390
▁steep	-6391
▁stiff	-6392
▁stink	-6393
▁surpr	-6394
▁swoon	-6395
▁tardy	-6396
▁theme	-6397
▁tiger	-6398
▁toads	-6399
▁trees	-6400
▁tutor	-6401
▁unpro	-6402
▁vouch	-6403
▁waits	-6404
▁whist	-6405
▁worms	-6406
▁wring	-6407
advised	-6408
angling	-6409
emption	-6410
ication	-6411
racious	-6412
rateful	-6413
▁Answer	-6414
▁Antium	-6415
▁Bishop	-6416
▁Murder	-6417
▁Stands	-6418
▁Sunday	-6419
▁Virtue	-6420
▁Walter	-6421
▁abhorr	-6422
▁accomp	-6423
▁acknow	-6424
▁afeard	-6425
▁ancest	-6426
▁angels	-6427
▁asking	-6428
▁belong	-6429
▁bereft	-6430
▁beside	-6431
▁bestri	-6432
▁bosoms	-6433
▁bounty	-6434
▁branch	-6435
▁breaks	-6436
▁burden	-6437
▁butter	-6438
▁causes	-6439
▁closed	-6440
▁crying	-6441
▁dearth	-6442
▁deform	-6443
▁depend	-6444
▁devils	-6445
▁devour	-6446
▁distra	-6447
▁easily	-6448
▁embass	-6449
▁enrich	-6450
▁exceed	-6451
▁fallen	-6452
▁feasts	-6453
▁framed	-6454
▁frozen	-6455
▁gather	-6456
▁graces	-6457
▁growth	-6458
▁herein	-6459
▁hinder	-6460
▁insinu	-6461
▁invent	-6462
▁inward	-6463
▁knocks	-6464
▁leaden	-6465
▁lenity	-6466
▁lights	-6467
▁linger	-6468
▁lodged	-6469
▁magist	-6470
▁meaner	-6471
▁mildly	-6472
▁moiety	-6473
▁moment	-6474
▁moving	-6475
▁nimble	-6476
▁orator	-6477
▁patron	-6478
▁pedlar	-6479
▁pitied	-6480
▁plants	-6481
▁pursue	-6482
▁reigns	-6483
▁resemb	-6484
▁rushes	-6485
▁safely	-6486
▁search	-6487
▁speedy	-6488
▁spider	-6489
▁stocks	-6490
▁strife	-6491
▁taking	-6492
▁taunts	-6493
▁temple	-6494
▁thrown	-6495
▁unlike	-6496
▁unlook	-6497
▁unluck	-6498
▁unruly	-6499
▁unseen	-6500
▁utmost	-6501
▁watery	-6502
▁wedded	-6503
▁window	-6504
▁worser	-6505
▁yester	-6506
isterous	-6507
shearing	-6508
standing	-6509
▁ABRAHAM	-6510
▁Antonio	-6511
▁Command	-6512
▁Confess	-6513
▁Content	-6514
▁Courage	-6515
▁Jupiter	-6516
▁Mistake	-6517
▁Neptune	-6518
▁Prosper	-6519
▁Suppose	-6520
▁Sycorax	-6521
▁Thyself	-6522
▁adverse	-6523
▁afflict	-6524
▁appears	-6525
▁avoided	-6526
▁battles	-6527
▁beggars	-6528
▁bending	-6529
▁breasts	-6530
▁carries	-6531
▁chances	-6532
▁charges	-6533
▁climate	-6534
▁compare	-6535
▁dancing	-6536
▁destiny	-6537
▁dissemb	-6538
▁disturb	-6539
▁endured	-6540
▁eternal	-6541
▁falling	-6542
▁fifteen	-6543
▁frantic	-6544
▁glasses	-6545
▁hangman	-6546
▁harbour	-6547
▁harmony	-6548
▁harvest	-6549
▁heinous	-6550
▁history	-6551
▁ignoble	-6552
▁impeach	-6553
▁inquire	-6554
▁intents	-6555
▁lasting	-6556
▁leaving	-6557
▁loathed	-6558
▁lodging	-6559
▁loyalty	-6560
▁lunatic	-6561
▁manhood	-6562
▁marshal	-6563
▁midwife	-6564
▁minutes	-6565
▁mothers	-6566
▁murders	-6567
▁mustard	-6568
▁numbers	-6569
▁persons	-6570
▁popular	-6571
▁prating	-6572
▁pursuit	-6573
▁quarter	-6574
▁require	-6575
▁revenue	-6576
▁roaring	-6577
▁secrets	-6578
▁serious	-6579
▁serpent	-6580
▁sitting	-6581
▁sixteen	-6582
▁springs	-6583
▁steward	-6584
▁support	-6585
▁surfeit	-6586
▁talking	-6587
▁thereto	-6588
▁trifles	-6589
▁venture	-6590
▁wronged	-6591
adventure	-6592
▁Brittany	-6593
▁Capulets	-6594
▁Carthage	-6595
▁Isabella	-6596
▁Pembroke	-6597
▁Scotland	-6598
▁Sometime	-6599
▁Tarpeian	-6600
▁Volscian	-6601
▁advanced	-6602
▁advocate	-6603
▁approved	-6604
▁attended	-6605
▁believed	-6606
▁blushing	-6607
▁branches	-6608
▁calamity	-6609
▁changing	-6610
▁chiefest	-6611
▁commands	-6612
▁commends	-6613
▁concerns	-6614
▁confeder	-6615
▁cracking	-6616
▁damnable	-6617
▁delicate	-6618
▁despised	-6619
▁distress	-6620
▁doubtful	-6621
▁downfall	-6622
▁drinking	-6623
▁enforced	-6624
▁entreaty	-6625
▁everlast	-6626
▁extremes	-6627
▁familiar	-6628
▁forehead	-6629
▁forsooth	-6630
▁humility	-6631
▁incensed	-6632
▁infected	-6633
▁learning	-6634
▁manifest	-6635
▁mischief	-6636
▁mountain	-6637
▁murdered	-6638
▁musician	-6639
▁nighting	-6640
▁northern	-6641
▁offences	-6642
▁perjured	-6643
▁prophecy	-6644
▁prophesy	-6645
▁proudest	-6646
▁provided	-6647
▁recreant	-6648
▁reported	-6649
▁sensible	-6650
▁singular	-6651
▁smallest	-6652
▁statutes	-6653
▁sweetest	-6654
▁swelling	-6655
▁unworthy	-6656
▁whoreson	-6657
▁wrinkled	-6658
▁yielding	-6659
▁Montagues	-6660
▁Tewksbury	-6661
▁Volscians	-6662
▁afterward	-6663
▁confessor	-6664
▁conqueror	-6665
▁discharge	-6666
▁disgraced	-6667
▁guiltless	-6668
▁injustice	-6669
▁innocence	-6670
▁interrupt	-6671
▁loathsome	-6672
▁multitude	-6673
▁murderous	-6674
▁ornaments	-6675
▁otherwise	-6676
▁plebeians	-6677
▁royalties	-6678
▁sacrament	-6679
▁safeguard	-6680
▁shoulders	-6681
▁suffering	-6682
▁thousands	-6683
▁unwilling	-6684
▁wonderful	-6685
▁ARCHBISHOP	-6686
▁Lieutenant	-6687
▁boisterous	-6688
▁compassion	-6689
▁conclusion	-6690
▁confession	-6691
▁confidence	-6692
▁considered	-6693
▁correction	-6694
▁corruption	-6695
▁counsellor	-6696
▁flatterers	-6697
▁friendship	-6698
▁henceforth	-6699
▁likelihood	-6700
▁marvellous	-6701
▁oppression	-6702
▁perfection	-6703
▁prosperity	-6704
▁redemption	-6705
▁revengeful	-6706
▁slanderous	-6707
▁sufferance	-6708
▁tenderness	-6709
▁visitation	-6710
▁whatsoever	-6711
▁whispering	-6712
▁brotherhood	-6713
▁ceremonious	-6714
▁consequence	-6715
▁displeasure	-6716
▁imagination	-6717
▁lamentation	-6718
▁proceedings	-6719
Be	-6720
He	-6721
St	-6722
cr	-6723
ex	-6724
lm	-6725
lu	-6726
ph	-6727
AGE	-6728
ANI	-6729
ONA	-6730
REY	-6731
The	-6732
ado	-6733
ais	-6734
ald	-6735
ank	-6736
asy	-6737
ato	-6738
aws	-6739
bid	-6740
cat	-6741
cel	-6742
cip	-6743
cis	-6744
civ	-6745
eks	-6746
eny	-6747
hur	-6748
idd	-6749
iel	-6750
imo	-6751
ims	-6752
iqu	-6753
isk	-6754
jud	-6755
key	-6756
lip	-6757
met	-6758
mph	-6759
ops	-6760
rge	-6761
ros	-6762
rup	-6763
ted	-6764
thw	-6765
uge	-6766
ule	-6767
ums	-6768
wit	-6769
▁Ag	-6770
▁Cy	-6771
▁Du	-6772
▁EM	-6773
▁Ro	-6774
▁av	-6775
▁hy	-6776
▁om	-6777
▁vi	-6778
Gain	-6779
This	-6780
adem	-6781
atri	-6782
azon	-6783
bell	-6784
bles	-6785
cast	-6786
cock	-6787
core	-6788
cund	-6789
duce	-6790
ebus	-6791
ffer	-6792
gage	-6793
ghts	-6794
gled	-6795
good	-6796
gory	-6797
gued	-6798
iner	-6799
inew	-6800
ingu	-6801
itty	-6802
ival	-6803
izab	-6804
kens	-6805
lled	-6806
look	-6807
loqu	-6808
love	-6809
miss	-6810
mpet	-6811
odow	-6812
olar	-6813
olve	-6814
omin	-6815
peci	-6816
phan	-6817
pped	-6818
ppet	-6819
pret	-6820
quet	-6821
quis	-6822
reth	-6823
rial	-6824
rief	-6825
rion	-6826
ropp	-6827
seem	-6828
seth	-6829
side	-6830
sion	-6831
sses	-6832
uced	-6833
umes	-6834
umny	-6835
umps	-6836
ungs	-6837
upon	-6838
urer	-6839
urvy	-6840
voke	-6841
will	-6842
xton	-6843
your	-6844
▁Any	-6845
▁Arm	-6846
▁Ass	-6847
▁Bad	-6848
▁Ban	-6849
▁Def	-6850
▁Dor	-6851
▁End	-6852
▁Fly	-6853
▁Ill	-6854
▁Ins	-6855
▁Jer	-6856
▁Jud	-6857
▁Jun	-6858
▁Lam	-6859
▁Pha	-6860
▁Pho	-6861
▁Red	-6862
▁Ren	-6863
▁Run	-6864
▁SUR	-6865
▁Sin	-6866
▁Tur	-6867
▁box	-6868
▁coz	-6869
▁ded	-6870
▁der	-6871
▁dil	-6872
▁ebb	-6873
▁fem	-6874
▁fet	-6875
▁fif	-6876
▁gaz	-6877
▁haw	-6878
▁ire	-6879
▁kna	-6880
▁mum	-6881
▁non	-6882
▁obt	-6883
▁pox	-6884
▁ren	-6885
▁stu	-6886
▁tax	-6887
▁tea	-6888
▁toe	-6889
▁ton	-6890
▁toy	-6891
▁tur	-6892
▁vig	-6893
ANIEL	-6894
Twill	-6895
aches	-6896
adise	-6897
alion	-6898
allel	-6899
andle	-6900
antle	-6901
asing	-6902
athom	-6903
blown	-6904
chool	-6905
craft	-6906
echer	-6907
eches	-6908
ethon	-6909
feits	-6910
glass	-6911
gnant	-6912
grown	-6913
habit	-6914
heard	-6915
holds	-6916
icial	-6917
iding	-6918
illed	-6919
isome	-6920
ivers	-6921
licit	-6922
lling	-6923
neath	-6924
nsion	-6925
opher	-6926
overy	-6927
plish	-6928
ptory	-6929
rails	-6930
rieve	-6931
runes	-6932
scals	-6933
scape	-6934
ships	-6935
stone	-6936
strel	-6937
thing	-6938
throw	-6939
tised	-6940
verse	-6941
versy	-6942
whelm	-6943
where	-6944
▁BONA	-6945
▁Back	-6946
▁Cher	-6947
▁Cold	-6948
▁DION	-6949
▁Fill	-6950
▁Fran	-6951
▁Gold	-6952
▁Harp	-6953
▁Herc	-6954
▁High	-6955
▁Holy	-6956
▁Host	-6957
▁Join	-6958
▁Just	-6959
▁Left	-6960
▁NATH	-6961
▁Obey	-6962
▁Open	-6963
▁PAGE	-6964
▁Pres	-6965
▁Prof	-6966
▁Rest	-6967
▁Urge	-6968
▁abod	-6969
▁abst	-6970
▁airy	-6971
▁alto	-6972
▁answ	-6973
▁arch	-6974
▁awry	-6975
▁beet	-6976
▁boon	-6977
▁bush	-6978
▁cann	-6979
▁card	-6980
▁cave	-6981
▁chaf	-6982
▁chap	-6983
▁chop	-6984
▁clap	-6985
▁coal	-6986
▁crew	-6987
▁cuck	-6988
▁dame	-6989
▁diet	-6990
▁doct	-6991
▁dumb	-6992
▁farm	-6993
▁feat	-6994
▁fest	-6995
▁fits	-6996
▁foil	-6997
▁fold	-6998
▁forn	-6999
▁gait	-7000
▁gaol	-7001
▁gape	-7002
▁geld	-7003
▁gulf	-7004
▁hall	-7005
▁halt	-7006
▁heap	-7007
▁hole	-7008
▁hood	-7009
▁idly	-7010
▁inve	-7011
▁jade	-7012
▁knit	-7013
▁lace	-7014
▁levy	-7015
▁liar	-7016
▁link	-7017
▁liqu	-7018
▁male	-7019
▁marr	-7020
▁mast	-7021
▁moan	-7022
▁muff	-7023
▁negl	-7024
▁obst	-7025
▁pate	-7026
▁pays	-7027
▁perf	-7028
▁pine	-7029
▁prec	-7030
▁puff	-7031
▁pull	-7032
▁rats	-7033
▁rent	-7034
▁ridd	-7035
▁rode	-7036
▁sear	-7037
▁sequ	-7038
▁sith	-7039
▁spar	-7040
▁sped	-7041
▁stem	-7042
▁sued	-7043
▁sugg	-7044
▁sung	-7045
▁syll	-7046
▁tink	-7047
▁ugly	-7048
▁unth	-7049
▁vine	-7050
▁warn	-7051
▁wasp	-7052
▁weal	-7053
▁weed	-7054
▁whet	-7055
Gainst	-7056
actors	-7057
ailing	-7058
aining	-7059
antime	-7060
apable	-7061
arison	-7062
asures	-7063
bearer	-7064
cedent	-7065
chelor	-7066
elting	-7067
erving	-7068
estern	-7069
franch	-7070
iquity	-7071
ivered	-7072
leness	-7073
liness	-7074
mongst	-7075
omenes	-7076
orizel	-7077
otless	-7078
ouches	-7079
piring	-7080
randam	-7081
ressed	-7082
rician	-7083
riment	-7084
strong	-7085
terate	-7086
ueless	-7087
uments	-7088
voided	-7089
witted	-7090
▁Again	-7091
▁Arise	-7092
▁Carry	-7093
▁Every	-7094
▁Fifth	-7095
▁Flore	-7096
▁Forth	-7097
▁Groom	-7098
▁Infer	-7099
▁Knock	-7100
▁Lodow	-7101
▁Lovel	-7102
▁Mercy	-7103
▁Percy	-7104
▁Seize	-7105
▁Shame	-7106
▁Sixth	-7107
▁Smile	-7108
▁Tarqu	-7109
▁Wales	-7110
▁Whate	-7111
▁Worse	-7112
▁Write	-7113
▁actor	-7114
▁admir	-7115
▁admit	-7116
▁afoot	-7117
▁afore	-7118
▁allay	-7119
▁aloof	-7120
▁amend	-7121
▁antic	-7122
▁apply	-7123
▁arbit	-7124
▁argos	-7125
▁armed	-7126
▁beads	-7127
▁befal	-7128
▁begot	-7129
▁blade	-7130
▁bleed	-7131
▁bodes	-7132
▁bount	-7133
▁brass	-7134
▁brawl	-7135
▁bribe	-7136
▁broad	-7137
▁budge	-7138
▁chest	-7139
▁climb	-7140
▁coals	-7141
▁crest	-7142
▁dared	-7143
▁decay	-7144
▁doors	-7145
▁doves	-7146
▁draws	-7147
▁drows	-7148
▁eloqu	-7149
▁embra	-7150
▁error	-7151
▁exact	-7152
▁fills	-7153
▁filth	-7154
▁flame	-7155
▁foret	-7156
▁graft	-7157
▁greyh	-7158
▁hatch	-7159
▁hazel	-7160
▁hears	-7161
▁hedge	-7162
▁heigh	-7163
▁herbs	-7164
▁holid	-7165
▁imped	-7166
▁impud	-7167
▁lends	-7168
▁locks	-7169
▁loins	-7170
▁loose	-7171
▁lungs	-7172
▁madly	-7173
▁magic	-7174
▁miles	-7175
▁musty	-7176
▁noses	-7177
▁notes	-7178
▁penny	-7179
▁perem	-7180
▁plate	-7181
▁prays	-7182
▁privy	-7183
▁pupil	-7184
▁quake	-7185
▁rages	-7186
▁rebel	-7187
▁relig	-7188
▁repet	-7189
▁ripen	-7190
▁rites	-7191
▁rocks	-7192
▁safer	-7193
▁sands	-7194
▁saucy	-7195
▁scape	-7196
▁scour	-7197
▁separ	-7198
▁shift	-7199
▁shout	-7200
▁siege	-7201
▁signs	-7202
▁sinew	-7203
▁slack	-7204
▁spilt	-7205
▁split	-7206
▁staff	-7207
▁stirs	-7208
▁sugar	-7209
▁tamed	-7210
▁tents	-7211
▁thres	-7212
▁token	-7213
▁tower	-7214
▁treat	-7215
▁tried	-7216
▁truer	-7217
▁unple	-7218
▁using	-7219
▁value	-7220
▁waken	-7221
▁wheel	-7222
▁whipt	-7223
enerate	-7224
entious	-7225
fulness	-7226
herited	-7227
itories	-7228
izabeth	-7229
kenbury	-7230
picious	-7231
shining	-7232
venient	-7233
▁Attend	-7234
▁Belike	-7235
▁Calais	-7236
▁Commit	-7237
▁Cursed	-7238
▁Darest	-7239
▁Direct	-7240
▁EMILIA	-7241
▁Emilia	-7242
▁Enough	-7243
▁Forbid	-7244
▁Greece	-7245
▁Hector	-7246
▁Herald	-7247
▁Neighb	-7248
▁Renown	-7249
▁Repent	-7250
▁SURREY	-7251
▁Twenty	-7252
▁Verily	-7253
▁agreed	-7254
▁allies	-7255
▁anchor	-7256
▁appell	-7257
▁ashore	-7258
▁assemb	-7259
▁attent	-7260
▁befits	-7261
▁beseem	-7262
▁beware	-7263
▁bishop	-7264
▁bleeds	-7265
▁bought	-7266
▁braved	-7267
▁canker	-7268
▁canopy	-7269
▁caused	-7270
▁centre	-7271
▁chains	-7272
▁chival	-7273
▁coldly	-7274
▁combat	-7275
▁confer	-7276
▁contri	-7277
▁create	-7278
▁darken	-7279
▁debase	-7280
▁deeper	-7281
▁deeply	-7282
▁defect	-7283
▁denial	-7284
▁device	-7285
▁diadem	-7286
▁dragon	-7287
▁dreamt	-7288
▁dwells	-7289
▁entire	-7290
▁events	-7291
▁famish	-7292
▁female	-7293
▁fights	-7294
▁firmly	-7295
▁fitted	-7296
▁forces	-7297
▁forest	-7298
▁fouler	-7299
▁gaoler	-7300
▁gloves	-7301
▁harlot	-7302
▁higher	-7303
▁homage	-7304
▁horror	-7305
▁hunger	-7306
▁impart	-7307
▁infirm	-7308
▁issued	-7309
▁jocund	-7310
▁killed	-7311
▁latest	-7312
▁limits	-7313
▁looker	-7314
▁louder	-7315
▁madest	-7316
▁madman	-7317
▁malign	-7318
▁marble	-7319
▁mellow	-7320
▁merely	-7321
▁minded	-7322
▁mutiny	-7323
▁napkin	-7324
▁naught	-7325
▁needle	-7326
▁nobler	-7327
▁nursed	-7328
▁obtain	-7329
▁orphan	-7330
▁pedant	-7331
▁permit	-7332
▁pledge	-7333
▁plucks	-7334
▁pocket	-7335
▁pounds	-7336
▁prerog	-7337
▁profan	-7338
▁prunes	-7339
▁puppet	-7340
▁quaint	-7341
▁queens	-7342
▁ragged	-7343
▁raging	-7344
▁rebuke	-7345
▁render	-7346
▁rescue	-7347
▁resort	-7348
▁rising	-7349
▁rivers	-7350
▁sayest	-7351
▁scorns	-7352
▁shower	-7353
▁shriek	-7354
▁shrink	-7355
▁silken	-7356
▁skulls	-7357
▁sleeps	-7358
▁sleepy	-7359
▁solely	-7360
▁spices	-7361
▁starve	-7362
▁strait	-7363
▁stream	-7364
▁street	-7365
▁succor	-7366
▁sunder	-7367
▁suppli	-7368
▁sweets	-7369
▁tailor	-7370
▁thorns	-7371
▁threes	-7372
▁trades	-7373
▁tumble	-7374
▁turned	-7375
▁unborn	-7376
▁unrest	-7377
▁vassal	-7378
▁volume	-7379
▁vulgar	-7380
▁widows	-7381
▁wilful	-7382
▁winged	-7383
▁wisest	-7384
▁woeful	-7385
▁wolves	-7386
ervation	-7387
ifferent	-7388
osterous	-7389
pecially	-7390
▁Advance	-7391
▁Amongst	-7392
▁Beshrew	-7393
▁Between	-7394
▁Betwixt	-7395
▁Condemn	-7396
▁Forbear	-7397
▁Francis	-7398
▁Grandam	-7399
▁Gregory	-7400
▁Masters	-7401
▁Measure	-7402
▁Phoebus	-7403
▁achieve	-7404
▁appoint	-7405
▁assault	-7406
▁baggage	-7407
▁banquet	-7408
▁beastly	-7409
▁beating	-7410
▁beguile	-7411
▁blister	-7412
▁calumny	-7413
▁capital	-7414
▁captive	-7415
▁changes	-7416
▁closely	-7417
▁conspir	-7418
▁contrad	-7419
▁cordial	-7420
▁council	-7421
▁counted	-7422
▁cousins	-7423
▁created	-7424
▁cuckold	-7425
▁curious	-7426
▁curtain	-7427
▁dangers	-7428
▁deceive	-7429
▁degrees	-7430
▁demands	-7431
▁direful	-7432
▁disobed	-7433
▁divided	-7434
▁divines	-7435
▁divorce	-7436
▁earldom	-7437
▁exclaim	-7438
▁faction	-7439
▁faintly	-7440
▁falsely	-7441
▁fasting	-7442
▁feeding	-7443
▁follies	-7444
▁footman	-7445
▁forsake	-7446
▁gentler	-7447
▁getting	-7448
▁glories	-7449
▁happier	-7450
▁haughty	-7451
▁hideous	-7452
▁highway	-7453
▁hurried	-7454
▁infring	-7455
▁inherit	-7456
▁knowest	-7457
▁lecture	-7458
▁lightly	-7459
▁longest	-7460
▁lustful	-7461
▁matters	-7462
▁merrily	-7463
▁mockery	-7464
▁mocking	-7465
▁natures	-7466
▁notwith	-7467
▁nourish	-7468
▁pardons	-7469
▁pastime	-7470
▁pattern	-7471
▁perjury	-7472
▁picture	-7473
▁plaints	-7474
▁procure	-7475
▁profits	-7476
▁pursued	-7477
▁raiment	-7478
▁rancour	-7479
▁rascals	-7480
▁recover	-7481
▁replied	-7482
▁reproof	-7483
▁rewards	-7484
▁roundly	-7485
▁scarlet	-7486
▁scholar	-7487
▁shelter	-7488
▁showers	-7489
▁smiling	-7490
▁society	-7491
▁solicit	-7492
▁spiders	-7493
▁suffice	-7494
▁superfl	-7495
▁suppose	-7496
▁supreme	-7497
▁tainted	-7498
▁threats	-7499
▁throats	-7500
▁tonight	-7501
▁tribune	-7502
▁tribute	-7503
▁undergo	-7504
▁villany	-7505
▁warning	-7506
▁wayward	-7507
▁weighty	-7508
▁wenches	-7509
▁western	-7510
▁whistle	-7511
▁wonders	-7512
mediately	-7513
perienced	-7514
▁Antiates	-7515
▁Consider	-7516
▁Dispatch	-7517
▁Doricles	-7518
▁Evermore	-7519
▁Florizel	-7520
▁Hercules	-7521
▁Lodowick	-7522
▁Meantime	-7523
▁Overdone	-7524
▁Phaethon	-7525
▁Thoughts	-7526
▁Touching	-7527
▁Welshmen	-7528
▁achieved	-7529
▁admitted	-7530
▁affright	-7531
▁ambition	-7532
▁appeared	-7533
▁bachelor	-7534
▁backward	-7535
▁bankrupt	-7536
▁baseness	-7537
▁bootless	-7538
▁brawling	-7539
▁breaking	-7540
▁breathes	-7541
▁breeding	-7542
▁chastity	-7543
▁choleric	-7544
▁comforts	-7545
▁confines	-7546
▁consumed	-7547
▁councils	-7548
▁counsels	-7549
▁delights	-7550
▁discords	-7551
▁disorder	-7552
▁distingu	-7553
▁division	-7554
▁drunkard	-7555
▁embraced	-7556
▁entrails	-7557
▁farthest	-7558
▁festival	-7559
▁fighting	-7560
▁frighted	-7561
▁fruitful	-7562
▁function	-7563
▁governor	-7564
▁harmless	-7565
▁husbands	-7566
▁imperial	-7567
▁indirect	-7568
▁inferior	-7569
▁injuries	-7570
▁intended	-7571
▁knightly	-7572
▁ladyship	-7573
▁mariners	-7574
▁medicine	-7575
▁merciful	-7576
▁millions	-7577
▁minstrel	-7578
▁miseries	-7579
▁mounting	-7580
▁mourning	-7581
▁needless	-7582
▁nobleman	-7583
▁peaceful	-7584
▁publicly	-7585
▁puissant	-7586
▁receives	-7587
▁regiment	-7588
▁remedies	-7589
▁required	-7590
▁requires	-7591
▁resolute	-7592
▁restored	-7593
▁returned	-7594
▁scarcely	-7595
▁scolding	-7596
▁stirring	-7597
▁stooping	-7598
▁strongly	-7599
▁strumpet	-7600
▁sunshine	-7601
▁tenderly	-7602
▁terrible	-7603
▁timeless	-7604
▁trembles	-7605
▁triumphs	-7606
▁unlawful	-7607
▁vineyard	-7608
▁welcomes	-7609
▁worthily	-7610
▁Affection	-7611
▁Cleomenes	-7612
▁Elizabeth	-7613
▁NATHANIEL	-7614
▁Patrician	-7615
▁amazement	-7616
▁blessings	-7617
▁caparison	-7618
▁concluded	-7619
▁confusion	-7620
▁consorted	-7621
▁counterpo	-7622
▁cowardice	-7623
▁creatures	-7624
▁delivered	-7625
▁disguised	-7626
▁dissemble	-7627
▁elsewhere	-7628
▁extremest	-7629
▁following	-7630
▁greetings	-7631
▁impatient	-7632
▁importune	-7633
▁injurious	-7634
▁insolence	-7635
▁insulting	-7636
▁lightness	-7637
▁merriment	-7638
▁mistaking	-7639
▁necessary	-7640
▁notorious	-7641
▁penitence	-7642
▁physician	-7643
▁poisonous	-7644
▁possessed	-7645
▁posterity	-7646
▁precedent	-7647
▁preserved	-7648
▁prisoners	-7649
▁reckoning	-7650
▁repossess	-7651
▁restraint	-7652
▁solemnity	-7653
▁testimony	-7654
▁treachery	-7655
▁troublous	-7656
▁unfeigned	-7657
▁utterance	-7658
▁witnesses	-7659
▁wrangling	-7660
▁Apothecary	-7661
▁Brakenbury	-7662
▁advertised	-7663
▁altogether	-7664
▁assistance	-7665
▁cheerfully	-7666
▁commanding	-7667
▁conditions	-7668
▁difference	-7669
▁discharged	-7670
▁distressed	-7671
▁expedition	-7672
▁headstrong	-7673
▁impatience	-7674
▁impediment	-7675
▁impression	-7676
▁inconstant	-7677
▁jealousies	-7678
▁knighthood	-7679
▁lieutenant	-7680
▁peremptory	-7681
▁persuasion	-7682
▁pestilence	-7683
▁pronounced	-7684
▁repetition	-7685
▁sisterhood	-7686
▁underneath	-7687
▁witchcraft	-7688
▁Christopher	-7689
▁acknowledge	-7690
▁chamberlain	-7691
▁comfortable	-7692
▁composition	-7693
▁controversy	-7694
▁forgiveness	-7695
▁grandfather	-7696
▁inclination	-7697
▁indifferent	-7698
▁interchange	-7699
▁nightingale	-7700
▁prerogative	-7701
▁territories	-7702
▁transported	-7703
▁apprehension	-7704
▁chastisement	-7705
▁schoolmaster	-7706
▁circumstances	-7707
▁understanding	-7708
▁notwithstanding	-7709
'!	-7710
CI	-7711
My	-7712
Ty	-7713
We	-7714
av	-7715
co	-7716
oz	-7717
sy	-7718
te	-7719
wh	-7720
▁▁	-7721
'--	-7722
ARL	-7723
UNT	-7724
alf	-7725
alo	-7726
ami	-7727
aus	-7728
bel	-7729
bes	-7730
can	-7731
cho	-7732
cts	-7733
din	-7734
dis	-7735
dra	-7736
dur	-7737
ech	-7738
ele	-7739
erp	-7740
erw	-7741
fly	-7742
gom	-7743
hos	-7744
hra	-7745
ias	-7746
iby	-7747
ige	-7748
iod	-7749
isc	-7750
las	-7751
leh	-7752
lex	-7753
liv	-7754
lla	-7755
mak	-7756
min	-7757
nel	-7758
net	-7759
nit	-7760
nut	-7761
oln	-7762
orc	-7763
pol	-7764
por	-7765
qua	-7766
reg	-7767
ris	-7768
sia	-7769
ton	-7770
umn	-7771
usc	-7772
uto	-7773
vir	-7774
▁BL	-7775
▁Pe	-7776
▁SA	-7777
▁Ti	-7778
▁Tr	-7779
▁au	-7780
▁cy	-7781
▁eg	-7782
▁el	-7783
▁ew	-7784
▁ib	-7785
▁la	-7786
▁na	-7787
▁ny	-7788
▁ox	-7789
CISC	-7790
Fore	-7791
Good	-7792
Soul	-7793
Tell	-7794
acks	-7795
agoz	-7796
aith	-7797
alem	-7798
alls	-7799
bu	-7800
fix	-7801
pse	-7802
spo	-7803
ubs	-7804
vil	-7805
Hear	-7806
alty	-7807
ange	-7808
anks	-7809
apes	-7810
arth	-7811
ashy	-7812
atin	-7813
aved	-7814
bast	-7815
bery	-7816
bled	-7817
body	-7818
bred	-7819
cued	-7820
dent	-7821
door	-7822
eria	-7823
eyed	-7824
fend	-7825
ffic	-7826
geal	-7827
geon	-7828
gher	-7829
gone	-7830
happ	-7831
hear	-7832
hers	-7833
hild	-7834
hoop	-7835
hyme	-7836
ican	-7837
ilty	-7838
inet	-7839
isle	-7840
itae	-7841
itan	-7842
keep	-7843
lord	-7844
lore	-7845
lorn	-7846
lous	-7847
lves	-7848
mary	-7849
mast	-7850
mind	-7851
once	-7852
oted	-7853
pery	-7854
phos	-7855
pire	-7856
ples	-7857
pted	-7858
pter	-7859
qual	-7860
reef	-7861
rian	-7862
ribe	-7863
roop	-7864
rung	-7865
sick	-7866
song	-7867
take	-7868
this	-7869
tles	-7870
tree	-7871
tsey	-7872
uity	-7873
ulte	-7874
unch	-7875
urps	-7876
utus	-7877
vill	-7878
vity	-7879
▁Bea	-7880
▁Beg	-7881
▁Cob	-7882
▁Cot	-7883
▁Die	-7884
▁Dou	-7885
▁Dre	-7886
▁Ele	-7887
▁Err	-7888
▁Eur	-7889
▁Far	-7890
▁Fer	-7891
▁Hap	-7892
▁Inf	-7893
▁Lad	-7894
▁Lud	-7895
▁Mab	-7896
▁Nat	-7897
▁Opp	-7898
▁Phi	-7899
It	-7900
arr	-7901
bon	-7902
book	-7903
▁Pil	-7904
▁Pit	-7905
▁Ref	-7906
▁Rus	-7907
▁Sad	-7908
▁Sub	-7909
▁Uly	-7910
▁Unb	-7911
▁Unc	-7912
▁Unw	-7913
▁Var	-7914
▁ant	-7915
▁awe	-7916
▁bau	-7917
▁baw	-7918
▁cas	-7919
▁ced	-7920
▁cri	-7921
▁dol	-7922
▁duc	-7923
▁dug	-7924
▁dun	-7925
▁esc	-7926
▁fed	-7927
▁fen	-7928
▁fut	-7929
▁gay	-7930
▁gir	-7931
▁gle	-7932
▁hab	-7933
▁hen	-7934
▁jar	-7935
▁kit	-7936
▁map	-7937
▁mor	-7938
▁mot	-7939
▁mow	-7940
▁nea	-7941
▁oce	-7942
▁orc	-7943
▁ost	-7944
▁phe	-7945
▁pir	-7946
▁poo	-7947
▁pry	-7948
▁raw	-7949
▁rip	-7950
▁rod	-7951
▁roy	-7952
▁rub	-7953
▁sex	-7954
▁sly	-7955
▁sty	-7956
▁tum	-7957
▁utt	-7958
▁vap	-7959
▁vio	-7960
▁web	-7961
▁wra	-7962
Heart	-7963
abour	-7964
acket	-7965
ackey	-7966
agate	-7967
agems	-7968
agine	-7969
anous	-7970
arded	-7971
areth	-7972
asciv	-7973
asite	-7974
assad	-7975
ately	-7976
atics	-7977
atory	-7978
aving	-7979
bborn	-7980
bered	-7981
ccess	-7982
ceipt	-7983
child	-7984
cible	-7985
doing	-7986
eases	-7987
ected	-7988
endom	-7989
ennel	-7990
ently	-7991
erely	-7992
erman	-7993
ersha	-7994
ggard	-7995
gging	-7996
greed	-7997
gress	-7998
hance	-7999
azy	-8000
cas	-8001
voc	-8002
dict	-8003
empl	-8004
mony	-8005
peak	-8006
urbs	-8007
▁Cut	-8008
▁hew	-8009
▁nov	-8010
▁yew	-8011
Souls	-8012
brain	-8013
guish	-8014
iable	-8015
icide	-8016
icing	-8017
ieldy	-8018
ifter	-8019
igeia	-8020
ilver	-8021
imois	-8022
imple	-8023
inite	-8024
iving	-8025
ivity	-8026
izard	-8027
jects	-8028
journ	-8029
lause	-8030
lings	-8031
loyal	-8032
lphur	-8033
nders	-8034
odity	-8035
oison	-8036
olour	-8037
omest	-8038
oming	-8039
ongue	-8040
onour	-8041
oting	-8042
pence	-8043
peror	-8044
piece	-8045
pline	-8046
poses	-8047
press	-8048
prise	-8049
pture	-8050
quess	-8051
quiet	-8052
raign	-8053
reach	-8054
ridge	-8055
rings	-8056
rosby	-8057
score	-8058
stood	-8059
stool	-8060
thren	-8061
using	-8062
ustle	-8063
vener	-8064
verns	-8065
weary	-8066
weigh	-8067
wench	-8068
women	-8069
▁Acqu	-8070
▁Adam	-8071
▁Base	-8072
▁Bore	-8073
▁Bret	-8074
▁Care	-8075
▁Deep	-8076
▁Dick	-8077
▁Dion	-8078
▁EARL	-8079
▁FRAN	-8080
▁Fitz	-8081
▁Fool	-8082
▁Gall	-8083
▁Glad	-8084
▁Half	-8085
▁Hard	-8086
▁Hung	-8087
▁Jule	-8088
▁Juno	-8089
▁Last	-8090
▁Leic	-8091
▁Less	-8092
▁Lift	-8093
▁Luke	-8094
▁Meet	-8095
▁Near	-8096
▁Nine	-8097
▁Pale	-8098
▁Ross	-8099
my	-8100
abb	-8101
soe	-8102
warn	-8103
▁egg	-8104
asted	-8105
urity	-8106
usual	-8107
worth	-8108
▁Carl	-8109
▁Girl	-8110
▁Seal	-8111
▁Sent	-8112
▁Sirs	-8113
▁Staf	-8114
▁Step	-8115
▁Stir	-8116
▁Stop	-8117
▁Suff	-8118
▁Tend	-8119
▁Told	-8120
▁Trem	-8121
▁Weep	-8122
▁Went	-8123
▁adul	-8124
▁aery	-8125
▁agre	-8126
▁aqua	-8127
▁aust	-8128
▁bait	-8129
▁bale	-8130
▁barb	-8131
▁barr	-8132
▁bate	-8133
▁bats	-8134
▁beho	-8135
▁bide	-8136
▁bier	-8137
▁bind	-8138
▁bone	-8139
▁bulk	-8140
▁calf	-8141
▁caus	-8142
▁cele	-8143
▁cert	-8144
▁chid	-8145
▁cony	-8146
▁crad	-8147
▁crut	-8148
▁cuff	-8149
▁curs	-8150
▁dial	-8151
▁dimm	-8152
▁doit	-8153
▁emul	-8154
▁exha	-8155
▁eyeb	-8156
▁fate	-8157
▁fees	-8158
▁file	-8159
▁flag	-8160
▁fowl	-8161
▁gear	-8162
▁gild	-8163
▁gnaw	-8164
▁grub	-8165
▁heal	-8166
▁hilt	-8167
▁hint	-8168
▁hook	-8169
▁howl	-8170
▁hush	-8171
▁ibat	-8172
▁jump	-8173
▁keen	-8174
▁kern	-8175
▁lain	-8176
▁lame	-8177
▁lamp	-8178
▁lane	-8179
▁lass	-8180
▁lazy	-8181
▁limb	-8182
▁lurk	-8183
▁mart	-8184
▁mass	-8185
▁mete	-8186
▁ming	-8187
▁muse	-8188
▁mute	-8189
▁nuns	-8190
▁pals	-8191
▁park	-8192
▁peck	-8193
▁pens	-8194
▁pith	-8195
▁poll	-8196
▁raze	-8197
▁resp	-8198
▁road	-8199
hast	-8200
▁Sel	-8201
▁pul	-8202
▁bash	-8203
▁gilt	-8204
▁ribb	-8205
▁rood	-8206
▁rope	-8207
▁scra	-8208
▁skin	-8209
▁soar	-8210
▁stew	-8211
▁subm	-8212
▁sues	-8213
▁suns	-8214
▁surm	-8215
▁surn	-8216
▁swim	-8217
▁symp	-8218
▁thra	-8219
▁tire	-8220
▁toss	-8221
▁toys	-8222
▁trod	-8223
▁unaw	-8224
▁unlo	-8225
▁unsc	-8226
▁vehe	-8227
▁vest	-8228
▁ware	-8229
▁wary	-8230
▁yard	-8231
Tybalt	-8232
acious	-8233
antial	-8234
arling	-8235
atiate	-8236
attery	-8237
bering	-8238
boding	-8239
durate	-8240
echery	-8241
eliver	-8242
ellows	-8243
ension	-8244
enting	-8245
esters	-8246
eterat	-8247
favour	-8248
gomery	-8249
haniel	-8250
horson	-8251
iction	-8252
ierced	-8253
ighton	-8254
inance	-8255
inctly	-8256
iously	-8257
ixture	-8258
lehill	-8259
livion	-8260
makers	-8261
mbling	-8262
minded	-8263
oubted	-8264
oughby	-8265
overed	-8266
people	-8267
pherds	-8268
randon	-8269
reathe	-8270
rehend	-8271
retion	-8272
ristol	-8273
rolled	-8274
ruised	-8275
scaped	-8276
school	-8277
scribe	-8278
shapen	-8279
ternal	-8280
tinent	-8281
usalem	-8282
usters	-8283
vering	-8284
withal	-8285
▁Abbot	-8286
▁Afric	-8287
▁Alone	-8288
▁April	-8289
▁Awake	-8290
▁BLUNT	-8291
▁Black	-8292
▁Blind	-8293
▁Blood	-8294
▁Blush	-8295
▁Brave	-8296
▁Cheer	-8297
▁Child	-8298
▁Const	-8299
▁Dukes	-8300
▁Envir	-8301
▁Exton	-8302
▁Found	-8303
▁Given	-8304
▁Guild	-8305
▁Helen	-8306
▁Irish	-8307
▁James	-8308
▁Knows	-8309
▁LORDS	-8310
▁Latin	-8311
▁Lives	-8312
▁Loved	-8313
▁Mount	-8314
▁Night	-8315
▁Place	-8316
▁Plain	-8317
▁Pluck	-8318
▁Proud	-8319
▁Quick	-8320
▁Ragoz	-8321
▁Revol	-8322
▁SALIS	-8323
▁Sland	-8324
▁Sleep	-8325
▁Small	-8326
▁Spoke	-8327
▁Susan	-8328
▁Takes	-8329
▁Tiber	-8330
▁Trans	-8331
▁Turks	-8332
▁White	-8333
▁aches	-8334
▁added	-8335
▁adder	-8336
▁adorn	-8337
▁agony	-8338
▁amity	-8339
▁annoy	-8340
▁asked	-8341
▁atone	-8342
▁awful	-8343
▁bandy	-8344
▁basil	-8345
▁bawdy	-8346
▁bench	-8347
▁bills	-8348
▁bites	-8349
▁blasp	-8350
▁blots	-8351
▁bonds	-8352
▁bonny	-8353
▁bragg	-8354
▁brine	-8355
▁built	-8356
▁chaff	-8357
▁chain	-8358
▁choke	-8359
▁chron	-8360
▁cleft	-8361
▁coats	-8362
▁cropp	-8363
▁curbs	-8364
▁daint	-8365
▁depth	-8366
▁disci	-8367
▁dooms	-8368
▁dropp	-8369
▁edict	-8370
▁effem	-8371
▁endea	-8372
▁endow	-8373
▁ensue	-8374
▁estab	-8375
▁fails	-8376
▁fence	-8377
▁fifty	-8378
▁flour	-8379
▁forms	-8380
▁gamut	-8381
▁giant	-8382
▁girls	-8383
▁glove	-8384
▁goest	-8385
▁gorge	-8386
▁greed	-8387
▁grove	-8388
▁hardy	-8389
▁harms	-8390
▁haven	-8391
▁helms	-8392
▁herds	-8393
▁hills	-8394
▁hoped	-8395
▁impre	-8396
▁incur	-8397
▁influ	-8398
▁knell	-8399
▁lacks	-8400
▁liars	-8401
▁linen	-8402
▁longs	-8403
▁manly	-8404
▁masqu	-8405
▁moans	-8406
▁needy	-8407
▁niece	-8408
▁ninet	-8409
▁nymph	-8410
▁outst	-8411
▁parch	-8412
▁parle	-8413
▁pikes	-8414
▁piled	-8415
▁pines	-8416
▁plays	-8417
▁plent	-8418
▁ports	-8419
▁posts	-8420
▁pratt	-8421
▁quest	-8422
▁rates	-8423
▁rheum	-8424
▁rings	-8425
▁sails	-8426
▁scare	-8427
▁scars	-8428
▁senis	-8429
▁shine	-8430
▁shock	-8431
▁shunn	-8432
▁slide	-8433
▁smelt	-8434
▁sober	-8435
▁songs	-8436
▁space	-8437
▁spear	-8438
▁spell	-8439
▁spurn	-8440
▁stage	-8441
▁start	-8442
▁stole	-8443
▁strat	-8444
▁stray	-8445
▁strip	-8446
▁stuck	-8447
▁suret	-8448
▁surly	-8449
▁swine	-8450
▁tales	-8451
▁threw	-8452
▁tides	-8453
▁tunes	-8454
▁unacc	-8455
▁unfit	-8456
▁unity	-8457
▁unman	-8458
▁unpre	-8459
▁upper	-8460
▁usage	-8461
▁verge	-8462
▁vices	-8463
▁visor	-8464
▁wagon	-8465
▁walks	-8466
▁whate	-8467
aration	-8468
bastian	-8469
cession	-8470
erwhelm	-8471
forward	-8472
igation	-8473
liction	-8474
minster	-8475
reefold	-8476
resseth	-8477
seeming	-8478
▁Amazon	-8479
▁Assist	-8480
▁Awaked	-8481
▁Banish	-8482
▁Become	-8483
▁Castle	-8484
▁Church	-8485
▁Cobham	-8486
▁Crosby	-8487
▁Europe	-8488
▁Except	-8489
▁Fellow	-8490
▁Forget	-8491
▁Hallow	-8492
▁Honest	-8493
▁Julius	-8494
▁Lammas	-8495
▁Little	-8496
▁Ludlow	-8497
▁Merely	-8498
▁Philip	-8499
▁Plashy	-8500
▁Player	-8501
▁Prodig	-8502
▁Redeem	-8503
▁Repair	-8504
▁Rescue	-8505
▁Russia	-8506
▁Sorrow	-8507
▁Throng	-8508
▁Tongue	-8509
▁Valent	-8510
▁Whence	-8511
▁Withal	-8512
▁Yonder	-8513
▁abuses	-8514
▁acting	-8515
▁adulte	-8516
▁ambush	-8517
▁argosy	-8518
▁ascend	-8519
▁attach	-8520
▁avouch	-8521
▁bauble	-8522
▁became	-8523
▁beetle	-8524
▁bewray	-8525
▁births	-8526
▁biting	-8527
▁blasts	-8528
▁blocks	-8529
▁bonnet	-8530
▁brazen	-8531
▁broils	-8532
▁buckle	-8533
▁burial	-8534
▁busied	-8535
▁bustle	-8536
▁candle	-8537
▁cannib	-8538
▁chafed	-8539
▁charms	-8540
▁cheers	-8541
▁chides	-8542
▁clergy	-8543
▁clothe	-8544
▁coffin	-8545
▁colder	-8546
▁commit	-8547
▁conver	-8548
▁courts	-8549
▁crimes	-8550
▁crutch	-8551
▁dainty	-8552
▁dances	-8553
▁daring	-8554
▁darkly	-8555
▁decree	-8556
▁digest	-8557
▁dishes	-8558
▁divers	-8559
▁divide	-8560
▁doings	-8561
▁drinks	-8562
▁driven	-8563
▁drowsy	-8564
▁ducats	-8565
▁eating	-8566
▁elders	-8567
▁encomp	-8568
▁enjoin	-8569
▁enjoys	-8570
▁enters	-8571
▁execut	-8572
▁expost	-8573
▁fabric	-8574
▁fathom	-8575
▁feeble	-8576
▁fester	-8577
▁fickle	-8578
▁fiends	-8579
▁filthy	-8580
▁fitter	-8581
▁flayed	-8582
▁fliers	-8583
▁flinty	-8584
▁floods	-8585
▁fourth	-8586
▁fruits	-8587
▁future	-8588
▁garlic	-8589
▁gentry	-8590
▁ginger	-8591
▁gotten	-8592
▁gratis	-8593
▁greets	-8594
▁handle	-8595
▁happen	-8596
▁harder	-8597
▁hearth	-8598
▁hounds	-8599
▁hourly	-8600
▁humane	-8601
▁impose	-8602
▁infamy	-8603
▁issues	-8604
▁jewels	-8605
▁justly	-8606
▁kennel	-8607
▁kitche	-8608
▁leader	-8609
▁lesson	-8610
▁levied	-8611
▁lineal	-8612
▁lively	-8613
▁mantle	-8614
▁mathem	-8615
▁melted	-8616
▁mirror	-8617
▁morsel	-8618
▁nearer	-8619
▁nerves	-8620
▁nettle	-8621
▁ordain	-8622
▁parcel	-8623
▁passes	-8624
▁penury	-8625
▁period	-8626
▁placed	-8627
▁planet	-8628
▁porter	-8629
▁potion	-8630
▁powder	-8631
▁presum	-8632
▁pricks	-8633
▁proofs	-8634
▁prover	-8635
▁purged	-8636
▁purses	-8637
▁quarre	-8638
▁rabble	-8639
▁rarest	-8640
▁refuge	-8641
▁region	-8642
▁rehear	-8643
▁relish	-8644
▁remiss	-8645
▁remote	-8646
▁repaid	-8647
▁revell	-8648
▁revers	-8649
▁revive	-8650
▁rigour	-8651
▁rogues	-8652
▁rumour	-8653
▁saddle	-8654
▁salute	-8655
▁scouts	-8656
▁seemed	-8657
▁shamed	-8658
▁sheets	-8659
▁shores	-8660
▁shouts	-8661
▁sickly	-8662
▁smiled	-8663
▁soften	-8664
▁softly	-8665
▁solace	-8666
▁spoils	-8667
▁starts	-8668
▁strain	-8669
▁strang	-8670
▁streak	-8671
▁stride	-8672
▁string	-8673
▁subdue	-8674
▁suborn	-8675
▁summon	-8676
▁supple	-8677
▁survey	-8678
▁talked	-8679
▁tatter	-8680
▁tellus	-8681
▁thorny	-8682
▁thrift	-8683
▁throng	-8684
▁tinker	-8685
▁titles	-8686
▁traged	-8687
▁tragic	-8688
▁treaty	-8689
▁treble	-8690
▁trudge	-8691
▁tumult	-8692
▁turtle	-8693
▁uneven	-8694
▁unwill	-8695
▁urging	-8696
▁usurer	-8697
▁vanish	-8698
▁verity	-8699
▁vigour	-8700
▁violet	-8701
▁waning	-8702
▁wasted	-8703
▁welkin	-8704
▁wheels	-8705
▁wheres	-8706
▁wildly	-8707
▁wishes	-8708
▁wooers	-8709
▁yellow	-8710
asonable	-8711
changing	-8712
cription	-8713
peration	-8714
ratitude	-8715
▁Bearing	-8716
▁Brandon	-8717
▁Breathe	-8718
▁Bristol	-8719
▁Brought	-8720
▁Delphos	-8721
▁Destroy	-8722
▁Dighton	-8723
▁Enforce	-8724
▁Forgive	-8725
▁Forrest	-8726
▁Happily	-8727
▁Heavens	-8728
▁Hostess	-8729
▁Imagine	-8730
▁Mariner	-8731
▁Meaning	-8732
▁Mercury	-8733
▁Princes	-8734
▁Seeking	-8735
▁Setting	-8736
▁Showing	-8737
▁Silence	-8738
▁Tarquin	-8739
▁Thither	-8740
▁Ulysses	-8741
▁Valeria	-8742
▁Witness	-8743
▁Wouldst	-8744
▁ability	-8745
▁amended	-8746
▁anguish	-8747
▁arrival	-8748
▁article	-8749
▁ballads	-8750
▁bargain	-8751
▁bashful	-8752
▁battery	-8753
▁beggary	-8754
▁begging	-8755
▁belongs	-8756
▁beshrew	-8757
▁besiege	-8758
▁bewitch	-8759
▁bondage	-8760
▁breaths	-8761
▁briefly	-8762
▁brittle	-8763
▁buzzard	-8764
▁calling	-8765
▁capable	-8766
▁carrion	-8767
▁clouded	-8768
▁coffers	-8769
▁compell	-8770
▁consort	-8771
▁consuls	-8772
▁consume	-8773
▁control	-8774
▁convent	-8775
▁convers	-8776
▁corners	-8777
▁courses	-8778
▁crowned	-8779
▁cushion	-8780
▁dastard	-8781
▁dealing	-8782
▁decrees	-8783
▁derived	-8784
▁deserts	-8785
▁desired	-8786
▁discred	-8787
▁dislike	-8788
▁distrib	-8789
▁doleful	-8790
▁doublet	-8791
▁doubted	-8792
▁duteous	-8793
▁effects	-8794
▁engross	-8795
▁evident	-8796
▁fairies	-8797
▁fitting	-8798
▁foaming	-8799
▁fooling	-8800
▁footing	-8801
▁forerun	-8802
▁forlorn	-8803
▁forsook	-8804
▁fresher	-8805
▁gainsay	-8806
▁glister	-8807
▁goodman	-8808
▁gossips	-8809
▁greatly	-8810
▁hatches	-8811
▁heavily	-8812
▁helmets	-8813
▁helping	-8814
▁highest	-8815
▁hostess	-8816
▁incense	-8817
▁infancy	-8818
▁inhabit	-8819
▁injured	-8820
▁instead	-8821
▁intends	-8822
▁justify	-8823
▁keeping	-8824
▁kissing	-8825
▁knavery	-8826
▁longing	-8827
▁lurking	-8828
▁mangled	-8829
▁mankind	-8830
▁message	-8831
▁mistook	-8832
▁nearest	-8833
▁nightly	-8834
▁ominous	-8835
▁opening	-8836
▁opposed	-8837
▁orchard	-8838
▁orderly	-8839
▁orphans	-8840
▁painful	-8841
▁parlous	-8842
▁partake	-8843
▁partial	-8844
▁peasant	-8845
▁perused	-8846
▁plotted	-8847
▁plucked	-8848
▁poorest	-8849
▁portion	-8850
▁praised	-8851
▁precise	-8852
▁presses	-8853
▁prodigy	-8854
▁produce	-8855
▁proffer	-8856
▁pursues	-8857
▁qualify	-8858
▁quality	-8859
▁quicken	-8860
▁receipt	-8861
▁recount	-8862
▁regreet	-8863
▁release	-8864
▁relieve	-8865
▁requite	-8866
▁resteth	-8867
▁returns	-8868
▁rightly	-8869
▁robbers	-8870
▁royally	-8871
▁sailors	-8872
▁scourge	-8873
▁seeking	-8874
▁seemeth	-8875
▁sending	-8876
▁serving	-8877
▁session	-8878
▁shorten	-8879
▁slender	-8880
▁smoking	-8881
▁soonest	-8882
▁spotted	-8883
▁sprites	-8884
▁stabbed	-8885
▁stripes	-8886
▁studied	-8887
▁studies	-8888
▁subdued	-8889
▁suburbs	-8890
▁sulphur	-8891
▁summers	-8892
▁surname	-8893
▁sweeten	-8894
▁swifter	-8895
▁swiftly	-8896
▁teeming	-8897
▁tending	-8898
▁thirsty	-8899
▁torches	-8900
▁traffic	-8901
▁turning	-8902
▁univers	-8903
▁unusual	-8904
▁violate	-8905
▁waiting	-8906
▁wealthy	-8907
▁wearing	-8908
▁whipped	-8909
▁winding	-8910
▁wishing	-8911
ascivious	-8912
beseeming	-8913
pretation	-8914
▁Abhorson	-8915
▁Accursed	-8916
▁Acquaint	-8917
▁Carlisle	-8918
▁Chertsey	-8919
▁Children	-8920
▁FRANCISC	-8921
▁Persuade	-8922
▁Ragozine	-8923
▁Renowned	-8924
▁Senators	-8925
▁Stafford	-8926
▁Standing	-8927
▁Thinking	-8928
▁Together	-8929
▁Yourself	-8930
▁abundant	-8931
▁affected	-8932
▁ambassad	-8933
▁applause	-8934
▁argument	-8935
▁articles	-8936
▁aspiring	-8937
▁assembly	-8938
▁bastardy	-8939
▁beauties	-8940
▁beggarly	-8941
▁beguiled	-8942
▁brethren	-8943
▁bringing	-8944
▁butchers	-8945
▁censured	-8946
▁ceremony	-8947
▁champion	-8948
▁charters	-8949
▁cheerful	-8950
▁chivalry	-8951
▁complete	-8952
▁confined	-8953
▁creation	-8954
▁creeping	-8955
▁criminal	-8956
▁crutches	-8957
▁daylight	-8958
▁deceased	-8959
▁delivery	-8960
▁detested	-8961
▁differen	-8962
▁directly	-8963
▁discreet	-8964
▁diseases	-8965
▁disguise	-8966
▁disloyal	-8967
▁disperse	-8968
▁disposed	-8969
▁drooping	-8970
▁drowning	-8971
▁dwelling	-8972
▁election	-8973
▁elements	-8974
▁embraces	-8975
▁enfranch	-8976
▁entering	-8977
▁exclaims	-8978
▁external	-8979
▁factious	-8980
▁fashions	-8981
▁fearless	-8982
▁feasting	-8983
▁foretell	-8984
▁freshest	-8985
▁fretting	-8986
▁frowning	-8987
▁handsome	-8988
▁homicide	-8989
▁hopeless	-8990
▁horrible	-8991
▁infinite	-8992
▁infringe	-8993
▁instance	-8994
▁interest	-8995
▁jointure	-8996
▁laboured	-8997
▁laughter	-8998
▁leanness	-8999
▁manacles	-9000
▁marquess	-9001
▁marrying	-9002
▁mightily	-9003
▁molehill	-9004
▁mutinies	-9005
▁nineteen	-9006
▁obdurate	-9007
▁oblivion	-9008
▁obscured	-9009
▁ordering	-9010
▁painting	-9011
▁paradise	-9012
▁parasite	-9013
▁pleaseth	-9014
▁posterns	-9015
▁pregnant	-9016
▁prevails	-9017
▁prodigal	-9018
▁profound	-9019
▁purposes	-9020
▁reckless	-9021
▁relation	-9022
▁reprieve	-9023
▁requital	-9024
▁reserved	-9025
▁resisted	-9026
▁respects	-9027
▁restrain	-9028
▁rosemary	-9029
▁security	-9030
▁severity	-9031
▁slanders	-9032
▁somebody	-9033
▁speeches	-9034
▁speedily	-9035
▁stealing	-9036
▁steterat	-9037
▁stinking	-9038
▁stubborn	-9039
▁stumbled	-9040
▁swearing	-9041
▁thorough	-9042
▁timorous	-9043
▁torments	-9044
▁toucheth	-9045
▁trencher	-9046
▁trenches	-9047
▁tumbling	-9048
▁unawares	-9049
▁ungentle	-9050
▁unjustly	-9051
▁unrevere	-9052
▁unthrift	-9053
▁vexation	-9054
▁visiting	-9055
▁warrants	-9056
▁watchful	-9057
▁womanish	-9058
▁worships	-9059
▁worthier	-9060
estershire	-9061
▁Condition	-9062
▁Fitzwater	-9063
▁Forthwith	-9064
▁Hallowmas	-9065
▁Jerusalem	-9066
▁Nathaniel	-9067
▁Perchance	-9068
▁Persuades	-9069
▁SALISBURY	-9070
▁Sebastian	-9071
▁abundance	-9072
▁accompany	-9073
▁agreement	-9074
▁ancestors	-9075
▁appellant	-9076
▁arguments	-9077
▁attorneys	-9078
▁beautiful	-9079
▁beginning	-9080
▁butterfly	-9081
▁certainly	-9082
▁clamorous	-9083
▁commodity	-9084
▁complices	-9085
▁consented	-9086
▁conserves	-9087
▁continued	-9088
▁customary	-9089
▁deformity	-9090
▁diligence	-9091
▁discovery	-9092
▁distemper	-9093
▁doubtless	-9094
▁eloquence	-9095
▁emulation	-9096
▁encourage	-9097
▁entreated	-9098
▁expressly	-9099
▁fantastic	-9100
▁fortnight	-9101
▁fortunate	-9102
▁heaviness	-9103
▁incapable	-9104
▁infirmity	-9105
▁innocency	-9106
▁innocents	-9107
▁insinuate	-9108
▁intercept	-9109
▁invention	-9110
▁lengthens	-9111
▁liberties	-9112
▁malicious	-9113
▁malignant	-9114
▁minstrels	-9115
▁momentary	-9116
▁moveables	-9117
▁murdering	-9118
▁obsequies	-9119
▁offenders	-9120
▁ordinance	-9121
▁overheard	-9122
▁overthrow	-9123
▁patiently	-9124
▁perchance	-9125
▁persuaded	-9126
▁petitions	-9127
▁pleasures	-9128
▁privately	-9129
▁qualities	-9130
▁residence	-9131
▁sacrifice	-9132
▁separated	-9133
▁shameless	-9134
▁shepherds	-9135
▁signories	-9136
▁sparkling	-9137
▁spectacle	-9138
▁strangely	-9139
▁subscribe	-9140
▁suppliant	-9141
▁surprised	-9142
▁temperate	-9143
▁threefold	-9144
▁threshold	-9145
▁throughly	-9146
▁transport	-9147
▁unavoided	-9148
▁uncertain	-9149
▁unluckily	-9150
▁villanous	-9151
▁whereupon	-9152
▁wondering	-9153
▁worthiest	-9154
▁Englishman	-9155
▁Montgomery	-9156
▁Pursuivant	-9157
▁Willoughby	-9158
▁accomplish	-9159
▁adulteress	-9160
▁affliction	-9161
▁afterwards	-9162
▁alteration	-9163
▁apothecary	-9164
▁approaches	-9165
▁changeling	-9166
▁charitable	-9167
▁companions	-9168
▁complaints	-9169
▁conspiracy	-9170
▁countryman	-9171
▁degenerate	-9172
▁detestable	-9173
▁discretion	-9174
▁disinherit	-9175
▁displeased	-9176
▁distinctly	-9177
▁effeminate	-9178
▁enterprise	-9179
▁especially	-9180
▁favourable	-9181
▁forefather	-9182
▁imposition	-9183
▁ingrateful	-9184
▁inveterate	-9185
▁lineaments	-9186
▁magistrate	-9187
▁maidenhead	-9188
▁manifested	-9189
▁meditation	-9190
▁physicians	-9191
▁proceeding	-9192
▁profession	-9193
▁prophecies	-9194
▁punishment	-9195
▁reasonable	-9196
▁reconciled	-9197
▁remembered	-9198
▁spectators	-9199
▁speechless	-9200
▁stratagems	-9201
▁strengthen	-9202
▁submission	-9203
▁temperance	-9204
▁tongueless	-9205
▁unaccustom	-9206
▁unpleasing	-9207
▁unprovided	-9208
▁victorious	-9209
▁worshipful	-9210
▁wrongfully	-9211
▁Christendom	-9212
▁Westminster	-9213
▁accusations	-9214
▁advancement	-9215
▁authorities	-9216
▁commandment	-9217
▁complexions	-9218
▁confederate	-9219
▁considering	-9220
▁countermand	-9221
▁deliverance	-9222
▁desperately	-9223
▁dissembling	-9224
▁distinguish	-9225
▁enforcement	-9226
▁everlasting	-9227
▁fantastical	-9228
▁fornication	-9229
▁immediately	-9230
▁inheritance	-9231
▁mathematics	-9232
▁necessities	-9233
▁preparation	-9234
▁resemblance	-9235
▁yesternight	-9236
▁acquaintance	-9237
▁disinherited	-9238
▁embracements	-9239
▁instructions	-9240
▁intercession	-9241
▁lamentations	-9242
▁peradventure	-9243
▁preposterous	-9244
▁wretchedness	-9245
An	-9246
LL	-9247
How	-9248
Rem	-9249
Sic	-9250
VEL	-9251
Yea	-9252
chb	-9253
dex	-9254
eaf	-9255
emp	-9256
fig	-9257
hic	-9258
hod	-9259
how	-9260
ics	-9261
ids	-9262
igs	-9263
imy	-9264
lix	-9265
ogy	-9266
omy	-9267
onz	-9268
pit	-9269
rip	-9270
uel	-9271
uft	-9272
vex	-9273
why	-9274
zes	-9275
▁--	-9276
▁Di	-9277
▁Es	-9278
AUGH	-9279
ITUS	-9280
OVEL	-9281
Stay	-9282
Than	-9283
Thus	-9284
anda	-9285
auph	-9286
avel	-9287
beat	-9288
bion	-9289
bout	-9290
boys	-9291
butt	-9292
comb	-9293
cote	-9294
crow	-9295
disp	-9296
dyed	-9297
edic	-9298
eing	-9299
ii	-9300
EAS	-9301
add	-9302
haw	-9303
ifs	-9304
tri	-9305
▁Bu	-9306
▁Sk	-9307
aned	-9308
atal	-9309
erry	-9310
erth	-9311
fast	-9312
flow	-9313
fond	-9314
gars	-9315
gger	-9316
hank	-9317
heth	-9318
ibya	-9319
ifle	-9320
imer	-9321
isit	-9322
ists	-9323
izes	-9324
lant	-9325
lars	-9326
lymp	-9327
merc	-9328
much	-9329
nant	-9330
nard	-9331
nity	-9332
opsa	-9333
orks	-9334
orts	-9335
pocr	-9336
pper	-9337
quer	-9338
ques	-9339
ride	-9340
rine	-9341
rius	-9342
shot	-9343
tern	-9344
thou	-9345
tico	-9346
tino	-9347
viol	-9348
west	-9349
wind	-9350
▁ALL	-9351
▁Arg	-9352
▁Ask	-9353
▁Aut	-9354
▁Bar	-9355
▁Day	-9356
▁Dra	-9357
▁Dry	-9358
▁Fam	-9359
▁Gro	-9360
▁Imm	-9361
▁Ing	-9362
▁Inj	-9363
▁Joy	-9364
▁Lim	-9365
▁Mir	-9366
▁Nea	-9367
▁Sea	-9368
▁Thi	-9369
▁alt	-9370
▁cel	-9371
▁coc	-9372
▁cod	-9373
▁coy	-9374
▁fay	-9375
▁fel	-9376
▁fis	-9377
▁gas	-9378
▁gun	-9379
▁ker	-9380
▁lic	-9381
▁mam	-9382
▁orb	-9383
▁rar	-9384
▁rav	-9385
▁sce	-9386
▁sew	-9387
▁shy	-9388
▁sla	-9389
▁tot	-9390
EASUR	-9391
Faith	-9392
affod	-9393
alian	-9394
amill	-9395
andon	-9396
annib	-9397
arell	-9398
avius	-9399
cre	-9400
ERKE	-9401
bary	-9402
dish	-9403
eath	-9404
exor	-9405
itic	-9406
lies	-9407
rons	-9408
stit	-9409
▁Led	-9410
▁Sum	-9411
▁Wot	-9412
▁bug	-9413
▁jay	-9414
▁sob	-9415
brary	-9416
cipal	-9417
creat	-9418
cures	-9419
death	-9420
domin	-9421
doubt	-9422
flies	-9423
goose	-9424
hampt	-9425
hargy	-9426
heads	-9427
heart	-9428
hrase	-9429
idels	-9430
ideth	-9431
idity	-9432
iency	-9433
igate	-9434
igree	-9435
illyv	-9436
inest	-9437
inish	-9438
inkle	-9439
inter	-9440
isson	-9441
isted	-9442
itary	-9443
mercy	-9444
metic	-9445
ology	-9446
onday	-9447
ooing	-9448
orant	-9449
orged	-9450
orpor	-9451
otche	-9452
oused	-9453
pared	-9454
ppers	-9455
quent	-9456
quish	-9457
rates	-9458
regia	-9459
roses	-9460
stain	-9461
swoln	-9462
uming	-9463
uscad	-9464
ushed	-9465
utish	-9466
ville	-9467
wness	-9468
▁Abra	-9469
▁Alex	-9470
▁Bare	-9471
▁Chan	-9472
▁Cuts	-9473
▁Dece	-9474
▁Deny	-9475
▁Deuc	-9476
▁Dogs	-9477
▁Done	-9478
▁Drop	-9479
▁Fine	-9480
▁Fore	-9481
▁Fors	-9482
▁Gonz	-9483
▁Heir	-9484
▁Hour	-9485
▁Howe	-9486
▁Inqu	-9487
▁Inst	-9488
▁Maid	-9489
▁Mort	-9490
▁Nort	-9491
▁Note	-9492
▁Pass	-9493
▁Past	-9494
▁Safe	-9495
▁Sout	-9496
▁Tick	-9497
▁Wipe	-9498
▁Wish	-9499
Lo	-9500
No	-9501
su	-9502
xy	-9503
HEY	-9504
ora	-9505
oro	-9506
rid	-9507
you	-9508
▁Fe	-9509
▁cu	-9510
aths	-9511
athy	-9512
igen	-9513
init	-9514
live	-9515
oise	-9516
omed	-9517
▁Ens	-9518
▁Fan	-9519
▁Hoo	-9520
▁Man	-9521
▁Tor	-9522
▁Unf	-9523
▁aed	-9524
▁lit	-9525
▁maw	-9526
swear	-9527
uance	-9528
▁Need	-9529
▁Sith	-9530
▁Worc	-9531
▁acre	-9532
▁ague	-9533
▁bars	-9534
▁beam	-9535
▁bede	-9536
▁bias	-9537
▁bled	-9538
▁bout	-9539
▁buds	-9540
▁carc	-9541
▁clog	-9542
▁clos	-9543
▁cloy	-9544
▁coil	-9545
▁copy	-9546
▁dall	-9547
▁deem	-9548
▁demi	-9549
▁dews	-9550
▁digg	-9551
▁dump	-9552
▁eggs	-9553
▁enge	-9554
▁epit	-9555
▁ewes	-9556
▁foem	-9557
▁fork	-9558
▁fuel	-9559
▁fume	-9560
▁fust	-9561
▁gamb	-9562
▁glit	-9563
▁gore	-9564
▁grud	-9565
▁hack	-9566
▁harp	-9567
▁hewn	-9568
▁indu	-9569
▁itch	-9570
▁larg	-9571
▁lime	-9572
▁lure	-9573
▁magn	-9574
▁maim	-9575
▁malm	-9576
▁navy	-9577
▁nost	-9578
▁noth	-9579
▁nurs	-9580
▁pies	-9581
▁pipe	-9582
▁poet	-9583
▁pond	-9584
▁pout	-9585
▁ruff	-9586
▁rung	-9587
▁sadd	-9588
▁sout	-9589
▁swan	-9590
▁thaw	-9591
▁toes	-9592
▁tore	-9593
▁tuft	-9594
▁unex	-9595
▁unsw	-9596
▁warp	-9597
▁wive	-9598
Charge	-9599
nz	-9600
ux	-9601
▁:	-9602
eys	-9603
hew	-9604
inc	-9605
ody	-9606
war	-9607
▁CH	-9608
▁te	-9609
heir	-9610
imon	-9611
nock	-9612
nzie	-9613
phew	-9614
rave	-9615
recy	-9616
stal	-9617
wood	-9618
▁Ped	-9619
▁aus	-9620
▁bal	-9621
▁hal	-9622
▁inh	-9623
▁pru	-9624
▁rat	-9625
ading	-9626
anied	-9627
asury	-9628
beard	-9629
begot	-9630
hoods	-9631
iless	-9632
maids	-9633
▁CARD	-9634
▁CHRI	-9635
▁Held	-9636
▁Sher	-9637
▁bolt	-9638
▁conn	-9639
▁gest	-9640
▁hiss	-9641
▁meek	-9642
▁sums	-9643
▁twos	-9644
EASURE	-9645
Thanks	-9646
abouts	-9647
active	-9648
anched	-9649
angled	-9650
anting	-9651
arting	-9652
ateful	-9653
atrice	-9654
attock	-9655
auphin	-9656
avoury	-9657
aynard	-9658
bridge	-9659
dinand	-9660
erbear	-9661
erness	-9662
erpast	-9663
erween	-9664
footed	-9665
gealed	-9666
gnable	-9667
hastly	-9668
hearts	-9669
honour	-9670
icanor	-9671
iddler	-9672
inence	-9673
judged	-9674
ledged	-9675
mitted	-9676
olycus	-9677
ortive	-9678
ounsel	-9679
ourest	-9680
plight	-9681
queath	-9682
remacy	-9683
server	-9684
shaped	-9685
silver	-9686
simple	-9687
sorrow	-9688
spoken	-9689
thread	-9690
thwack	-9691
thwart	-9692
ticoat	-9693
uities	-9694
ulling	-9695
valued	-9696
vocate	-9697
volous	-9698
weighs	-9699
azz	-9700
igm	-9701
irp	-9702
iry	-9703
lay	-9704
oan	-9705
pan	-9706
rob	-9707
sec	-9708
▁Sl	-9709
▁Wa	-9710
Alas	-9711
cked	-9712
gent	-9713
ldst	-9714
oder	-9715
test	-9716
utor	-9717
yers	-9718
▁Cra	-9719
▁Roy	-9720
▁bem	-9721
▁ham	-9722
▁hay	-9723
▁ine	-9724
Bless	-9725
cting	-9726
eries	-9727
isons	-9728
orner	-9729
otent	-9730
otpan	-9731
retty	-9732
▁Kill	-9733
▁Spur	-9734
▁Sugg	-9735
▁ally	-9736
▁broo	-9737
▁cape	-9738
▁curb	-9739
▁disb	-9740
▁dugs	-9741
▁triv	-9742
corner	-9743
empore	-9744
hating	-9745
therea	-9746
winged	-9747
▁Archb	-9748
▁BERKE	-9749
▁Brief	-9750
▁Chide	-9751
▁Cotus	-9752
▁Count	-9753
▁Crown	-9754
▁Drawn	-9755
▁Earth	-9756
▁Force	-9757
▁Greek	-9758
▁Haply	-9759
▁Holla	-9760
▁House	-9761
▁Inter	-9762
▁Jacks	-9763
▁Judas	-9764
▁LOVEL	-9765
▁Laugh	-9766
▁Libya	-9767
▁Light	-9768
▁Mopsa	-9769
▁Olymp	-9770
▁Plays	-9771
▁Roger	-9772
▁Shake	-9773
▁Spare	-9774
▁Stabb	-9775
▁Stays	-9776
▁Stirr	-9777
▁TITUS	-9778
▁Taste	-9779
▁Threw	-9780
▁Troth	-9781
▁Tutor	-9782
▁VAUGH	-9783
▁Vince	-9784
▁Visit	-9785
▁Words	-9786
▁Wrath	-9787
▁Yorks	-9788
▁abode	-9789
▁admon	-9790
▁aptly	-9791
▁arith	-9792
▁arrog	-9793
▁baits	-9794
▁banns	-9795
▁belie	-9796
▁bells	-9797
▁blank	-9798
▁brake	-9799
Ver	-9800
aub	-9801
fes	-9802
few	-9803
ney	-9804
par	-9805
ugh	-9806
▁gy	-9807
Come	-9808
Rome	-9809
harm	-9810
itud	-9811
late	-9812
pill	-9813
▁Oft	-9814
▁Pen	-9815
▁Pur	-9816
▁aut	-9817
▁rev	-9818
▁slu	-9819
Romeo	-9820
agion	-9821
amine	-9822
elier	-9823
ondam	-9824
would	-9825
▁Cour	-9826
▁Fast	-9827
▁Hugh	-9828
▁Laid	-9829
▁Wear	-9830
▁dive	-9831
▁gees	-9832
▁meas	-9833
▁puny	-9834
▁reek	-9835
▁seed	-9836
▁unpo	-9837
▁wean	-9838
Verily	-9839
ellist	-9840
▁Delay	-9841
▁Kates	-9842
▁brats	-9843
▁brick	-9844
▁bunch	-9845
▁cable	-9846
▁cakes	-9847
▁canon	-9848
▁cater	-9849
▁cavil	-9850
▁cedar	-9851
▁clerk	-9852
▁clubs	-9853
▁cocke	-9854
▁corns	-9855
▁couch	-9856
▁covet	-9857
▁creep	-9858
▁curds	-9859
▁darts	-9860
▁daunt	-9861
▁deign	-9862
▁deity	-9863
▁demes	-9864
▁domin	-9865
▁drive	-9866
▁drove	-9867
▁dumps	-9868
▁earls	-9869
▁elbow	-9870
▁extra	-9871
▁falch	-9872
▁fasts	-9873
▁fawns	-9874
▁fitly	-9875
▁fixed	-9876
▁fling	-9877
▁flung	-9878
▁funer	-9879
▁gapes	-9880
▁geese	-9881
▁glean	-9882
▁gusts	-9883
▁gyves	-9884
▁habil	-9885
▁hates	-9886
▁hides	-9887
▁hoard	-9888
▁holes	-9889
▁horns	-9890
▁hound	-9891
▁hunts	-9892
▁index	-9893
▁ingen	-9894
▁inhum	-9895
▁insur	-9896
▁jades	-9897
▁kills	-9898
▁knack	-9899
dro	-9900
ece	-9901
pur	-9902
url	-9903
agon	-9904
peer	-9905
▁Fur	-9906
▁Inc	-9907
▁Ple	-9908
▁Pra	-9909
▁Rec	-9910
▁ess	-9911
▁giv	-9912
▁lag	-9913
▁nim	-9914
▁roe	-9915
eling	-9916
guing	-9917
▁Gave	-9918
▁Iron	-9919
▁Land	-9920
▁Prov	-9921
▁Rise	-9922
▁Wise	-9923
▁Wood	-9924
▁eyed	-9925
▁lave	-9926
▁pins	-9927
▁riot	-9928
▁sinc	-9929
alties	-9930
venged	-9931
▁Learn	-9932
▁Venus	-9933
▁ample	-9934
▁apple	-9935
▁avail	-9936
▁brood	-9937
▁churl	-9938
▁desol	-9939
▁doers	-9940
▁feign	-9941
▁knots	-9942
▁leash	-9943
▁lucky	-9944
▁masks	-9945
▁meets	-9946
▁mispl	-9947
▁ocean	-9948
▁ounce	-9949
▁owest	-9950
▁pence	-9951
▁plume	-9952
▁prank	-9953
▁prone	-9954
▁proro	-9955
▁quaff	-9956
▁rayed	-9957
▁razed	-9958
▁renew	-9959
▁rhyme	-9960
▁rival	-9961
▁roots	-9962
▁rusty	-9963
▁salve	-9964
▁scale	-9965
▁sheer	-9966
▁sheet	-9967
▁shrug	-9968
▁shuns	-9969
▁smock	-9970
▁spawn	-9971
▁spies	-9972
▁stake	-9973
▁steer	-9974
▁stirr	-9975
▁swarm	-9976
▁swept	-9977
▁tails	-9978
▁tenth	-9979
▁tilth	-9980
▁twigs	-9981
▁unpar	-9982
▁unpit	-9983
▁unres	-9984
▁unsus	-9985
▁usest	-9986
▁usual	-9987
▁vaunt	-9988
▁vitae	-9989
▁waded	-9990
▁waist	-9991
▁wealt	-9992
▁weeks	-9993
▁wield	-9994
▁wiser	-9995
▁witty	-9996
▁wooer	-9997
▁wrapt	-9998
Courage	-9999
ob	-10000
Sir	-10001
▁Us	-10002
▁ci	-10003
Have	-10004
Hold	-10005
Thou	-10006
cold	-10007
tide	-10008
▁Aim	-10009
▁Jew	-10010
▁riv	-10011
atisf	-10012
oughs	-10013
reech	-10014
three	-10015
uckle	-10016
urned	-10017
▁Free	-10018
▁Wond	-10019
▁arts	-10020
▁fade	-10021
▁fitt	-10022
▁gird	-10023
▁rapt	-10024
▁rice	-10025
▁robe	-10026
▁stam	-10027
▁stee	-10028
▁twin	-10029
astery	-10030
berate	-10031
closed	-10032
oneous	-10033
urnish	-10034
▁Draws	-10035
▁Kings	-10036
▁Scorn	-10037
▁afire	-10038
▁assay	-10039
▁cheat	-10040
▁clime	-10041
▁cloth	-10042
▁clout	-10043
▁dough	-10044
▁flout	-10045
▁games	-10046
▁gripe	-10047
▁inher	-10048
▁prede	-10049
▁skies	-10050
▁tribe	-10051
aculate	-10052
allible	-10053
annibal	-10054
arewell	-10055
attling	-10056
comfort	-10057
edicite	-10058
ensible	-10059
falling	-10060
fellows	-10061
hampton	-10062
ictment	-10063
iolanus	-10064
itution	-10065
landers	-10066
longeth	-10067
mblance	-10068
mercies	-10069
otchets	-10070
ounding	-10071
pillars	-10072
pointed	-10073
portion	-10074
reation	-10075
rivener	-10076
running	-10077
settled	-10078
sheathe	-10079
staring	-10080
ucation	-10081
ucement	-10082
wearied	-10083
▁Accept	-10084
▁Adrian	-10085
▁Albion	-10086
▁Ascend	-10087
▁Barnet	-10088
▁Became	-10089
▁Bloody	-10090
▁Boldly	-10091
▁Breton	-10092
▁CHRIST	-10093
▁Change	-10094
▁Crowns	-10095
▁Desire	-10096
▁Divine	-10097
▁Doubly	-10098
▁Eleven	-10099
abs	-10100
aby	-10101
agab	-10102
aled	-10103
gery	-10104
mple	-10105
rang	-10106
rove	-10107
tong	-10108
▁oil	-10109
amour	-10110
erick	-10111
inent	-10112
liest	-10113
perly	-10114
range	-10115
ruple	-10116
uding	-10117
▁Begg	-10118
▁Dull	-10119
▁Echo	-10120
▁Fred	-10121
▁List	-10122
▁Rain	-10123
▁Vile	-10124
▁adds	-10125
▁apes	-10126
▁begs	-10127
▁bull	-10128
▁clip	-10129
▁cull	-10130
▁diff	-10131
▁hent	-10132
▁nuts	-10133
▁purg	-10134
▁rite	-10135
▁shin	-10136
▁trad	-10137
▁unsk	-10138
▁untr	-10139
ashing	-10140
ection	-10141
geably	-10142
ieving	-10143
▁Bless	-10144
▁Keeps	-10145
▁Tears	-10146
▁artif	-10147
▁disli	-10148
▁liver	-10149
▁perch	-10150
▁stony	-10151
agabond	-10152
ainties	-10153
ressing	-10154
tongued	-10155
unction	-10156
▁Exceed	-10157
▁Flower	-10158
▁Golden	-10159
▁Hacket	-10160
▁Ladies	-10161
▁Longer	-10162
▁Mamill	-10163
▁Namely	-10164
▁Neapol	-10165
▁Pilate	-10166
▁Poison	-10167
▁Potpan	-10168
▁Prefix	-10169
▁Pretty	-10170
▁Priami	-10171
▁Reason	-10172
▁Rebell	-10173
▁Robert	-10174
▁Saddle	-10175
▁Scroop	-10176
▁Scurvy	-10177
▁Sicils	-10178
▁Sigeia	-10179
▁Simois	-10180
▁Sister	-10181
▁Softly	-10182
▁Strive	-10183
▁Summon	-10184
▁Taking	-10185
▁Temper	-10186
▁Unfold	-10187
▁Wrench	-10188
▁abomin	-10189
▁abound	-10190
▁admits	-10191
▁afresh	-10192
▁alarum	-10193
▁allied	-10194
▁amount	-10195
▁argued	-10196
▁argues	-10197
▁autumn	-10198
▁awaken	-10199
mew	-10200
INAL	-10201
True	-10202
cont	-10203
days	-10204
hips	-10205
ints	-10206
suck	-10207
▁Spl	-10208
▁esp	-10209
▁nut	-10210
▁sip	-10211
apert	-10212
assed	-10213
cease	-10214
chest	-10215
dding	-10216
fered	-10217
heres	-10218
match	-10219
meant	-10220
onted	-10221
ossed	-10222
rants	-10223
shell	-10224
sweet	-10225
▁Cret	-10226
▁Kiss	-10227
▁Rage	-10228
▁Self	-10229
▁Shed	-10230
▁Sure	-10231
▁ache	-10232
▁asks	-10233
▁boil	-10234
▁doff	-10235
▁logs	-10236
▁peep	-10237
▁prig	-10238
▁rift	-10239
▁rubs	-10240
▁tush	-10241
▁wool	-10242
ertile	-10243
forter	-10244
ianced	-10245
rimony	-10246
▁Allow	-10247
▁Tread	-10248
▁entit	-10249
▁faded	-10250
▁guide	-10251
▁heaps	-10252
antages	-10253
content	-10254
ouncing	-10255
rection	-10256
venteen	-10257
▁Honour	-10258
▁Relent	-10259
▁accent	-10260
▁barber	-10261
▁behove	-10262
▁bended	-10263
▁betake	-10264
▁bisson	-10265
▁blanks	-10266
▁bloods	-10267
▁bolder	-10268
▁bottle	-10269
▁bounds	-10270
▁brands	-10271
▁breech	-10272
▁brooch	-10273
▁brooks	-10274
▁bubble	-10275
▁builds	-10276
▁carbon	-10277
▁carver	-10278
▁casque	-10279
▁causer	-10280
▁celebr	-10281
▁chairs	-10282
▁chants	-10283
▁chapel	-10284
▁cipher	-10285
▁closet	-10286
▁cloven	-10287
▁clutch	-10288
▁cockle	-10289
▁compet	-10290
▁copest	-10291
▁corpse	-10292
▁cracks	-10293
▁cradle	-10294
▁crafts	-10295
▁cramps	-10296
▁curfew	-10297
▁daffod	-10298
▁damask	-10299
yr	-10300
When	-10301
mend	-10302
mock	-10303
pile	-10304
pray	-10305
▁Dev	-10306
▁Emb	-10307
▁cox	-10308
aketh	-10309
aucas	-10310
cloth	-10311
comed	-10312
herds	-10313
ifies	-10314
maker	-10315
▁Incl	-10316
▁bits	-10317
▁boat	-10318
▁coin	-10319
▁gale	-10320
▁hild	-10321
▁hoop	-10322
▁jars	-10323
▁medd	-10324
▁pile	-10325
▁slug	-10326
▁vail	-10327
▁vall	-10328
ashion	-10329
orship	-10330
▁Doing	-10331
▁Grief	-10332
▁Prick	-10333
▁Short	-10334
▁Weigh	-10335
▁chaos	-10336
▁cured	-10337
▁dates	-10338
▁guile	-10339
▁raged	-10340
▁reins	-10341
▁rider	-10342
▁saves	-10343
▁skins	-10344
▁smack	-10345
▁talks	-10346
▁thigh	-10347
▁track	-10348
atesman	-10349
keeping	-10350
▁Argier	-10351
▁Matter	-10352
▁beards	-10353
▁briers	-10354
▁confli	-10355
▁danced	-10356
▁denier	-10357
▁detect	-10358
▁dieted	-10359
▁discom	-10360
▁disfig	-10361
▁dissol	-10362
▁dolour	-10363
▁dotard	-10364
▁doting	-10365
▁doubts	-10366
▁eagles	-10367
▁easter	-10368
▁engine	-10369
▁ensign	-10370
▁entail	-10371
▁exiled	-10372
▁extirp	-10373
▁factor	-10374
▁falter	-10375
▁faster	-10376
▁featly	-10377
▁fetter	-10378
▁finest	-10379
▁finish	-10380
▁fishes	-10381
▁fleece	-10382
▁foison	-10383
▁forego	-10384
▁forged	-10385
▁forges	-10386
▁formal	-10387
▁freeze	-10388
▁fulfil	-10389
▁furthe	-10390
▁gazing	-10391
▁gilded	-10392
▁gillyv	-10393
▁glance	-10394
▁gossip	-10395
▁grains	-10396
▁graver	-10397
▁grudge	-10398
▁guides	-10399
MEN	-10400
ddy	-10401
rav	-10402
irts	-10403
serv	-10404
▁Sed	-10405
▁dul	-10406
▁ivy	-10407
▁mol	-10408
Whoop	-10409
hapen	-10410
ildly	-10411
inary	-10412
onely	-10413
sheet	-10414
▁Ethi	-10415
▁Pity	-10416
▁Thee	-10417
▁choo	-10418
▁dart	-10419
▁dirt	-10420
▁gasp	-10421
▁grin	-10422
▁size	-10423
▁tape	-10424
▁void	-10425
bodied	-10426
monger	-10427
pected	-10428
racted	-10429
stones	-10430
▁Looks	-10431
▁Worth	-10432
▁fours	-10433
▁moons	-10434
▁muddy	-10435
▁smoke	-10436
▁stair	-10437
pecting	-10438
reading	-10439
▁Adding	-10440
▁During	-10441
▁Engage	-10442
▁bolted	-10443
▁brawls	-10444
▁career	-10445
▁chests	-10446
▁devout	-10447
▁drudge	-10448
▁hammer	-10449
▁heated	-10450
▁heaved	-10451
▁helped	-10452
▁hidden	-10453
▁highly	-10454
▁hoarse	-10455
▁hoping	-10456
▁hypocr	-10457
▁images	-10458
▁impute	-10459
▁inches	-10460
▁indign	-10461
▁inexor	-10462
▁inside	-10463
▁invite	-10464
▁ireful	-10465
▁kersey	-10466
▁kindle	-10467
▁lackey	-10468
▁ladder	-10469
▁lastly	-10470
▁lessen	-10471
▁liquid	-10472
▁liquor	-10473
▁litter	-10474
▁logger	-10475
▁losing	-10476
▁loveth	-10477
▁lowest	-10478
▁madmen	-10479
▁makest	-10480
▁manors	-10481
▁massac	-10482
▁mature	-10483
▁medlar	-10484
▁menace	-10485
▁mended	-10486
▁method	-10487
▁mingle	-10488
▁misled	-10489
▁mocked	-10490
▁motive	-10491
▁muffle	-10492
▁multip	-10493
▁mutton	-10494
▁mutual	-10495
▁nation	-10496
▁nephew	-10497
▁nicely	-10498
▁nimbly	-10499
ky	-10500
HER	-10501
cup	-10502
ipt	-10503
▁Sn	-10504
mark	-10505
seed	-10506
wall	-10507
▁ram	-10508
▁sci	-10509
▁tar	-10510
OPHER	-10511
black	-10512
ckets	-10513
music	-10514
oever	-10515
othed	-10516
▁Sham	-10517
▁Wash	-10518
▁moth	-10519
▁pars	-10520
▁rags	-10521
gments	-10522
ighing	-10523
morant	-10524
ottage	-10525
ourses	-10526
ringed	-10527
▁Haste	-10528
▁Wrong	-10529
▁dally	-10530
▁jaunt	-10531
▁limed	-10532
▁parks	-10533
▁poets	-10534
▁purbl	-10535
▁range	-10536
▁scarr	-10537
▁shuts	-10538
▁testy	-10539
masters	-10540
▁Forced	-10541
▁Monday	-10542
▁abides	-10543
▁adders	-10544
▁basely	-10545
▁beaver	-10546
▁bestir	-10547
▁carved	-10548
▁client	-10549
▁counts	-10550
▁flying	-10551
▁losses	-10552
▁merits	-10553
▁nobody	-10554
▁novice	-10555
▁openly	-10556
▁oppose	-10557
▁orange	-10558
▁orders	-10559
▁ostent	-10560
▁overta	-10561
▁parley	-10562
▁partis	-10563
▁paying	-10564
▁perfid	-10565
▁phrase	-10566
▁pillow	-10567
▁pirate	-10568
▁plight	-10569
▁plough	-10570
▁poetry	-10571
▁ponder	-10572
▁potent	-10573
▁prayed	-10574
▁precip	-10575
▁presag	-10576
▁prolix	-10577
▁promot	-10578
▁proves	-10579
▁puling	-10580
▁purest	-10581
▁purity	-10582
▁rankle	-10583
▁rashly	-10584
▁reduce	-10585
▁relent	-10586
▁repeat	-10587
▁retail	-10588
▁revoke	-10589
▁richer	-10590
▁richly	-10591
▁riddle	-10592
▁ripest	-10593
▁rivals	-10594
▁roared	-10595
▁sailor	-10596
▁saving	-10597
▁scathe	-10598
▁scurvy	-10599
Cor	-10600
oil	-10601
▁ps	-10602
ipod	-10603
vels	-10604
▁Bro	-10605
▁New	-10606
▁owl	-10607
chess	-10608
mouth	-10609
plain	-10610
proud	-10611
rains	-10612
umbly	-10613
▁ampl	-10614
▁lump	-10615
▁pump	-10616
▁ribs	-10617
▁runn	-10618
▁type	-10619
▁vein	-10620
▁waft	-10621
aching	-10622
ements	-10623
emning	-10624
ipodes	-10625
ouched	-10626
▁Capel	-10627
▁acted	-10628
▁bower	-10629
▁coral	-10630
▁cures	-10631
▁dregs	-10632
▁drugs	-10633
▁fined	-10634
▁jests	-10635
▁mocks	-10636
▁tenor	-10637
▁tithe	-10638
▁wombs	-10639
cessors	-10640
▁Mortal	-10641
▁Resign	-10642
▁Seeing	-10643
▁blench	-10644
▁choked	-10645
▁cities	-10646
▁denies	-10647
▁excels	-10648
▁furred	-10649
▁grants	-10650
▁hereof	-10651
▁indust	-10652
▁judged	-10653
▁pieced	-10654
▁rudely	-10655
▁sedges	-10656
▁selves	-10657
▁sequel	-10658
▁setter	-10659
▁shamef	-10660
▁shaped	-10661
▁sheath	-10662
▁shrill	-10663
▁sinews	-10664
▁sinful	-10665
▁sleeve	-10666
▁slower	-10667
▁smells	-10668
▁soever	-10669
▁sorted	-10670
▁sparks	-10671
▁speeds	-10672
▁sprang	-10673
▁sprung	-10674
▁square	-10675
▁squire	-10676
▁stains	-10677
▁stalls	-10678
▁stamps	-10679
▁sticks	-10680
▁stings	-10681
▁stored	-10682
▁submit	-10683
▁surety	-10684
▁swells	-10685
▁tables	-10686
▁tabour	-10687
▁tackle	-10688
▁taming	-10689
▁target	-10690
▁tempor	-10691
▁thrall	-10692
▁throws	-10693
▁thwack	-10694
▁tigers	-10695
▁tokens	-10696
▁transg	-10697
▁treads	-10698
▁tribes	-10699
alus	-10700
beit	-10701
lloa	-10702
plus	-10703
▁pea	-10704
▁sol	-10705
▁wip	-10706
arism	-10707
etchy	-10708
pired	-10709
▁Dead	-10710
▁Lucy	-10711
▁Quit	-10712
▁Requ	-10713
▁begn	-10714
▁bitt	-10715
▁cats	-10716
▁eats	-10717
▁flap	-10718
▁owed	-10719
▁punk	-10720
▁sops	-10721
▁subs	-10722
isheth	-10723
urally	-10724
▁Abate	-10725
▁angle	-10726
▁broil	-10727
▁clang	-10728
▁coven	-10729
▁envir	-10730
▁examp	-10731
▁extol	-10732
▁hurry	-10733
▁jolly	-10734
▁lasts	-10735
▁mista	-10736
▁necks	-10737
▁penet	-10738
▁seats	-10739
▁skull	-10740
▁spray	-10741
▁tires	-10742
▁undes	-10743
berries	-10744
vouring	-10745
▁Friend	-10746
▁Lament	-10747
▁Reward	-10748
▁Spread	-10749
▁babies	-10750
▁broach	-10751
▁doubly	-10752
▁galled	-10753
▁garish	-10754
▁garter	-10755
▁interr	-10756
▁mettle	-10757
▁regent	-10758
▁savour	-10759
▁truths	-10760
▁tutors	-10761
▁unable	-10762
▁undisc	-10763
▁uneasy	-10764
▁unfelt	-10765
▁unfort	-10766
▁unhall	-10767
▁unhapp	-10768
▁unking	-10769
▁unknit	-10770
▁unposs	-10771
▁unsway	-10772
▁usurps	-10773
▁utters	-10774
▁venuto	-10775
▁vestal	-10776
▁victor	-10777
▁visits	-10778
▁vizard	-10779
▁waving	-10780
▁weaker	-10781
▁whores	-10782
▁willow	-10783
Citizens	-10784
Remember	-10785
apparell	-10786
creature	-10787
dominant	-10788
ershades	-10789
ertainly	-10790
holesome	-10791
ittingly	-10792
kerchief	-10793
olerable	-10794
peakable	-10795
ubbering	-10796
▁AEdiles	-10797
▁Abraham	-10798
▁Account	-10799
▁Ado	-10800
▁ply	-10801
agued	-10802
ramed	-10803
round	-10804
▁chin	-10805
▁conv	-10806
▁dawn	-10807
▁hugg	-10808
emaker	-10809
roying	-10810
twenty	-10811
▁Below	-10812
▁Bliss	-10813
▁Hover	-10814
▁Provo	-10815
▁Sorry	-10816
▁apish	-10817
▁baked	-10818
▁bloss	-10819
▁eased	-10820
▁famed	-10821
▁refer	-10822
▁scarf	-10823
▁seals	-10824
▁seeds	-10825
▁shipp	-10826
▁shoot	-10827
▁trimm	-10828
▁viper	-10829
ilities	-10830
ittance	-10831
▁Behind	-10832
▁admire	-10833
▁assign	-10834
▁awaked	-10835
▁bridle	-10836
▁cleave	-10837
▁easier	-10838
▁encamp	-10839
▁farmer	-10840
▁groats	-10841
▁invest	-10842
▁lances	-10843
▁latter	-10844
▁listen	-10845
▁milder	-10846
▁opport	-10847
▁pities	-10848
▁replen	-10849
▁shades	-10850
▁staves	-10851
▁sunset	-10852
▁travel	-10853
▁unwise	-10854
▁writes	-10855
moreland	-10856
orporate	-10857
▁Barbary	-10858
▁Baynard	-10859
▁Cheerly	-10860
▁Compare	-10861
▁Counsel	-10862
▁Culling	-10863
▁Deliver	-10864
▁Deserve	-10865
▁Desires	-10866
▁Despite	-10867
▁Dismiss	-10868
▁Dispose	-10869
▁Emperor	-10870
▁Endured	-10871
▁Examine	-10872
▁Falsely	-10873
▁Fellows	-10874
▁Flavius	-10875
▁Florent	-10876
▁Forward	-10877
▁Further	-10878
▁Gonzalo	-10879
▁Herbert	-10880
▁Herself	-10881
▁Holding	-10882
▁Hungary	-10883
▁Inquire	-10884
▁Intends	-10885
▁Italian	-10886
▁Letters	-10887
▁Looking	-10888
▁MEASURE	-10889
▁Marquis	-10890
▁Miranda	-10891
▁Nicanor	-10892
▁Nightly	-10893
▁POMPHEY	-10894
▁Perform	-10895
▁Plainly	-10896
▁Present	-10897
▁Procure	-10898
▁Profess	-10899
hily	-10900
▁Dig	-10901
▁cog	-10902
▁pip	-10903
denly	-10904
locks	-10905
▁Grim	-10906
▁Next	-10907
▁beck	-10908
▁camp	-10909
▁rubb	-10910
▁unbu	-10911
acheth	-10912
gentle	-10913
utiful	-10914
▁Enjoy	-10915
▁Heart	-10916
▁Negle	-10917
▁barne	-10918
▁drain	-10919
▁feels	-10920
▁gazed	-10921
▁hairs	-10922
▁hurts	-10923
▁plots	-10924
▁ranks	-10925
▁scrup	-10926
▁simpl	-10927
▁smear	-10928
▁vials	-10929
▁wreak	-10930
missive	-10931
velling	-10932
▁Almost	-10933
▁Notice	-10934
▁acquit	-10935
▁arrive	-10936
▁baited	-10937
▁befell	-10938
▁finely	-10939
▁gavest	-10940
▁guards	-10941
▁malady	-10942
▁ridges	-10943
▁rooted	-10944
▁rounds	-10945
▁verily	-10946
▁Flatter	-10947
▁Receive	-10948
▁Resolve	-10949
▁Sheriff	-10950
▁Sitting	-10951
▁Slander	-10952
▁Southam	-10953
▁Stephen	-10954
▁Success	-10955
▁Suffolk	-10956
▁Suggest	-10957
▁Therein	-10958
▁Thereof	-10959
▁Thereon	-10960
▁Thieves	-10961
▁Tremble	-10962
▁Unhappy	-10963
▁VAUGHAN	-10964
▁Varrius	-10965
▁Weeping	-10966
▁Whereby	-10967
▁Whoever	-10968
▁abandon	-10969
▁abroach	-10970
▁accents	-10971
▁admiral	-10972
▁admired	-10973
▁adopted	-10974
▁adulter	-10975
▁aediles	-10976
▁affable	-10977
▁affects	-10978
▁alarums	-10979
▁allowed	-10980
▁ambling	-10981
▁anchors	-10982
▁answers	-10983
▁apology	-10984
▁appeach	-10985
▁approve	-10986
▁arguing	-10987
▁arraign	-10988
▁asunder	-10989
▁audible	-10990
▁augment	-10991
▁awaking	-10992
▁baleful	-10993
▁bestrew	-10994
▁bestrid	-10995
▁betters	-10996
▁blacker	-10997
▁blowing	-10998
▁blushes	-10999
fied	-11000
▁err	-11001
celsa	-11002
ucing	-11003
▁Been	-11004
▁irks	-11005
beards	-11006
spring	-11007
▁Turns	-11008
▁rocky	-11009
▁sways	-11010
deliver	-11011
righted	-11012
riously	-11013
▁Twelve	-11014
▁conjur	-11015
▁detain	-11016
▁fields	-11017
▁haunts	-11018
▁robbed	-11019
▁scared	-11020
▁soothe	-11021
▁Killing	-11022
▁Knowing	-11023
▁bleared	-11024
▁borough	-11025
▁bottled	-11026
▁bravely	-11027
▁braving	-11028
▁breeder	-11029
▁brutish	-11030
▁buckler	-11031
▁cambric	-11032
▁cancell	-11033
▁carcass	-11034
▁carters	-11035
▁casting	-11036
▁channel	-11037
▁charter	-11038
▁cheques	-11039
▁chiefly	-11040
▁circled	-11041
▁citizen	-11042
▁combine	-11043
▁commune	-11044
▁concern	-11045
▁conduit	-11046
▁confine	-11047
▁congeal	-11048
▁contain	-11049
▁contend	-11050
▁contrar	-11051
▁cottage	-11052
▁couched	-11053
▁cowards	-11054
▁crabbed	-11055
▁credent	-11056
▁crimson	-11057
▁crooked	-11058
▁crosses	-11059
▁cruelty	-11060
▁crupper	-11061
▁crystal	-11062
▁currish	-11063
▁cursing	-11064
▁cypress	-11065
▁decreed	-11066
▁defaced	-11067
▁defects	-11068
▁denying	-11069
▁depends	-11070
▁descant	-11071
▁devised	-11072
▁devoted	-11073
▁discern	-11074
▁dispose	-11075
▁dispute	-11076
▁distaff	-11077
▁doctors	-11078
▁doubled	-11079
▁dreaded	-11080
▁drowned	-11081
▁dullest	-11082
▁durance	-11083
▁eastern	-11084
▁elected	-11085
▁endless	-11086
▁ensuing	-11087
▁envying	-11088
▁equally	-11089
▁escaped	-11090
▁evening	-11091
▁exactly	-11092
▁exceeds	-11093
▁excused	-11094
▁excuses	-11095
▁exhales	-11096
▁fancies	-11097
▁feigned	-11098
▁figured	-11099
▁filling	-11100
▁finding	-11101
▁fitness	-11102
▁foolery	-11103
▁forbids	-11104
▁forfend	-11105
▁frailty	-11106
▁fraught	-11107
▁funeral	-11108
▁furious	-11109
▁gallops	-11110
▁gallows	-11111
▁garment	-11112
▁gasping	-11113
▁ghastly	-11114
▁grafted	-11115
▁gratify	-11116
▁gravity	-11117
▁grossly	-11118
▁haggard	-11119
▁handled	-11120
▁hangmen	-11121
▁hapless	-11122
▁harmful	-11123
▁hastily	-11124
▁hearers	-11125
▁hearken	-11126
▁heralds	-11127
▁heretic	-11128
▁holiday	-11129
▁hostile	-11130
▁howling	-11131
▁humours	-11132
▁hunting	-11133
▁impiety	-11134
▁implore	-11135
▁imports	-11136
▁incaged	-11137
▁incline	-11138
▁induced	-11139
▁inhuman	-11140
▁issuing	-11141
▁kernels	-11142
▁killing	-11143
▁kindest	-11144
▁kitchen	-11145
▁knights	-11146
▁labours	-11147
▁largess	-11148
▁lawless	-11149
▁lawyers	-11150
▁leading	-11151
▁leather	-11152
▁lechery	-11153
▁lessons	-11154
▁letting	-11155
▁library	-11156
▁licence	-11157
▁lighted	-11158
▁lolling	-11159
▁louring	-11160
▁malmsey	-11161
▁mansion	-11162
▁marches	-11163
▁mattock	-11164
▁meanest	-11165
▁melting	-11166
▁merited	-11167
▁million	-11168
▁miracle	-11169
▁misdeed	-11170
▁mortals	-11171
▁moulded	-11172
▁mounted	-11173
▁mourner	-11174
▁muffled	-11175
▁nettles	-11176
▁noisome	-11177
▁notable	-11178
▁observe	-11179
▁oppress	-11180
▁orators	-11181
▁oratory	-11182
▁ordered	-11183
▁orisons	-11184
▁outside	-11185
▁packing	-11186
▁pageant	-11187
▁palmers	-11188
▁palsied	-11189
▁panting	-11190
▁paragon	-11191
▁parcels	-11192
▁passado	-11193
▁payment	-11194
▁pelting	-11195
▁penalty	-11196
▁pensive	-11197
▁perfume	-11198
▁pinched	-11199
▁plagues	-11200
▁planted	-11201
▁players	-11202
▁politic	-11203
▁postern	-11204
▁posture	-11205
▁potency	-11206
▁pratest	-11207
▁prattle	-11208
▁praying	-11209
▁precept	-11210
▁prenzie	-11211
▁priests	-11212
▁privily	-11213
▁prolong	-11214
▁prompts	-11215
▁propose	-11216
▁proudly	-11217
▁proverb	-11218
▁proveth	-11219
▁provoke	-11220
▁publish	-11221
▁quietly	-11222
▁quondam	-11223
▁raising	-11224
▁reflect	-11225
▁refresh	-11226
▁remnant	-11227
▁rescued	-11228
▁respite	-11229
▁resting	-11230
▁revived	-11231
▁ribbons	-11232
▁robbery	-11233
▁running	-11234
▁sainted	-11235
▁savours	-11236
▁scepter	-11237
▁scruple	-11238
▁seconds	-11239
▁secrecy	-11240
▁setting	-11241
▁shamest	-11242
▁sharper	-11243
▁shelves	-11244
▁shields	-11245
▁shining	-11246
▁showing	-11247
▁shrieks	-11248
▁sighing	-11249
▁singing	-11250
▁singled	-11251
▁slavish	-11252
▁sleeves	-11253
▁slumber	-11254
▁sparing	-11255
▁spoiled	-11256
▁spright	-11257
▁squared	-11258
▁stables	-11259
▁starved	-11260
▁stately	-11261
▁station	-11262
▁stealth	-11263
▁stinted	-11264
▁stirrup	-11265
▁stories	-11266
▁strains	-11267
▁streaks	-11268
▁streams	-11269
▁strifes	-11270
▁strikes	-11271
▁surplus	-11272
▁tailors	-11273
▁testify	-11274
▁thereon	-11275
▁thimble	-11276
▁thrives	-11277
▁throngs	-11278
▁topmast	-11279
▁touches	-11280
▁tragedy	-11281
▁trained	-11282
▁trample	-11283
▁trident	-11284
▁trivial	-11285
▁trodden	-11286
▁trusted	-11287
▁tumbled	-11288
▁twofold	-11289
▁unclean	-11290
▁uncrown	-11291
▁unlucky	-11292
▁unquiet	-11293
▁unstain	-11294
▁unthank	-11295
▁upholds	-11296
▁uttered	-11297
▁verdict	-11298
▁veriest	-11299
▁victors	-11300
▁violets	-11301
▁volumes	-11302
▁vouches	-11303
▁wagging	-11304
▁wagoner	-11305
▁wailing	-11306
▁walking	-11307
▁wantons	-11308
▁wedlock	-11309
▁whoever	-11310
▁widower	-11311
▁winning	-11312
▁wisdoms	-11313
▁witless	-11314
▁working	-11315
▁wreaths	-11316
▁wrinkle	-11317
ercharged	-11318
▁Anointed	-11319
▁BERKELEY	-11320
▁Bestride	-11321
▁Bootless	-11322
▁CARDINAL	-11323
▁Cytherea	-11324
▁Daughter	-11325
▁December	-11326
▁Deserved	-11327
▁Deserves	-11328
▁Despised	-11329
▁Enforced	-11330
▁Florence	-11331
▁Forswear	-11332
▁Hannibal	-11333
▁Iniquity	-11334
▁Intended	-11335
▁Julietta	-11336
▁Mortimer	-11337
▁Pitchers	-11338
▁Prospero	-11339
▁Provided	-11340
▁Redeemer	-11341
▁Resolved	-11342
▁Sicinius	-11343
▁Thinkest	-11344
▁Untimely	-11345
▁Unworthy	-11346
▁Welshman	-11347
▁Whatever	-11348
▁Wondrous	-11349
▁abortive	-11350
▁accusers	-11351
▁accustom	-11352
▁addition	-11353
▁admiring	-11354
▁agreeing	-11355
▁allowing	-11356
▁answered	-11357
▁anything	-11358
▁arrested	-11359
▁assemble	-11360
▁assisted	-11361
▁audience	-11362
▁basilisk	-11363
▁beheaded	-11364
▁bestride	-11365
▁blasphem	-11366
▁bracelet	-11367
▁braggart	-11368
▁bruising	-11369
▁buildeth	-11370
▁captives	-11371
▁carriage	-11372
▁censures	-11373
▁choosing	-11374
▁cloister	-11375
▁clusters	-11376
▁cockerel	-11377
▁codpiece	-11378
▁combined	-11379
▁complots	-11380
▁conjured	-11381
▁consents	-11382
▁conspire	-11383
▁contains	-11384
▁contempl	-11385
▁contrive	-11386
▁converts	-11387
▁covering	-11388
▁crossing	-11389
▁cuckolds	-11390
▁curtains	-11391
▁cushions	-11392
▁dateless	-11393
▁dealings	-11394
▁declined	-11395
▁declines	-11396
▁dedicate	-11397
▁defiance	-11398
▁delivers	-11399
▁demesnes	-11400
▁departed	-11401
▁deposing	-11402
▁descried	-11403
▁desiring	-11404
▁destined	-11405
▁directed	-11406
▁disdains	-11407
▁dissolve	-11408
▁distance	-11409
▁divorced	-11410
▁doctrine	-11411
▁doublets	-11412
▁duellist	-11413
▁dwellest	-11414
▁enjoying	-11415
▁enrolled	-11416
▁entreats	-11417
▁estimate	-11418
▁eternity	-11419
▁evidence	-11420
▁examples	-11421
▁expected	-11422
▁eyebrows	-11423
▁eyesight	-11424
▁falchion	-11425
▁famously	-11426
▁feverous	-11427
▁flattery	-11428
▁followed	-11429
▁follower	-11430
▁foremost	-11431
▁forewarn	-11432
▁forfeits	-11433
▁formally	-11434
▁formerly	-11435
▁forsaken	-11436
▁forswore	-11437
▁fountain	-11438
▁frequent	-11439
▁furlongs	-11440
▁furthest	-11441
▁garlands	-11442
▁gorgeous	-11443
▁graceful	-11444
▁grateful	-11445
▁groaning	-11446
▁headlong	-11447
▁hearkens	-11448
▁herdsmen	-11449
▁holidame	-11450
▁honestly	-11451
▁horseman	-11452
▁humorous	-11453
▁huntsmen	-11454
▁imagined	-11455
▁impossib	-11456
▁impudent	-11457
▁infidels	-11458
▁inforced	-11459
▁inquired	-11460
▁insolent	-11461
▁instinct	-11462
▁interior	-11463
▁justices	-11464
▁kingdoms	-11465
▁lamented	-11466
▁languish	-11467
▁laughing	-11468
▁lectures	-11469
▁lethargy	-11470
▁lightens	-11471
▁lovelier	-11472
▁luckless	-11473
▁malapert	-11474
▁mannerly	-11475
▁masquers	-11476
▁massacre	-11477
▁meantime	-11478
▁misdoubt	-11479
▁monarchy	-11480
▁moralize	-11481
▁moveable	-11482
▁multiply	-11483
▁multitud	-11484
▁mutually	-11485
▁nativity	-11486
▁nearness	-11487
▁nothings	-11488
▁opposers	-11489
▁ornament	-11490
▁outstret	-11491
▁parallel	-11492
▁passages	-11493
▁pedigree	-11494
▁peerless	-11495
▁perfumed	-11496
▁pheasant	-11497
▁pictures	-11498
▁plucking	-11499
▁prettily	-11500
▁pricking	-11501
▁proceeds	-11502
▁progress	-11503
▁promises	-11504
▁province	-11505
▁punished	-11506
▁purblind	-11507
▁purposed	-11508
▁pursuing	-11509
▁quarrels	-11510
▁quarters	-11511
▁rashness	-11512
▁readiest	-11513
▁recorded	-11514
▁rehearse	-11515
▁released	-11516
▁religion	-11517
▁renounce	-11518
▁reproach	-11519
▁restless	-11520
▁revenues	-11521
▁revolted	-11522
▁runagate	-11523
▁securely	-11524
▁sedition	-11525
▁servitor	-11526
▁sessions	-11527
▁shameful	-11528
▁shearers	-11529
▁slippery	-11530
▁solemnly	-11531
▁soothing	-11532
▁sounding	-11533
▁southern	-11534
▁spacious	-11535
▁sportful	-11536
▁spotless	-11537
▁staggers	-11538
▁standers	-11539
▁stinging	-11540
▁stomachs	-11541
▁straitly	-11542
▁striving	-11543
▁strucken	-11544
▁studying	-11545
▁supposes	-11546
▁surcease	-11547
▁surfeits	-11548
▁surprise	-11549
▁sweeting	-11550
▁syllable	-11551
▁sympathy	-11552
▁teaching	-11553
▁temporal	-11554
▁testimon	-11555
▁thriving	-11556
▁tortoise	-11557
▁tortures	-11558
▁touching	-11559
▁treasury	-11560
▁troubles	-11561
▁ungovern	-11562
▁unhallow	-11563
▁unlikely	-11564
▁unpeople	-11565
▁unpitied	-11566
▁untaught	-11567
▁unwieldy	-11568
▁unwonted	-11569
▁vanquish	-11570
▁variable	-11571
▁vehement	-11572
▁verified	-11573
▁watching	-11574
▁weighing	-11575
▁welcomed	-11576
▁westward	-11577
▁wheresoe	-11578
▁whipping	-11579
▁woodcock	-11580
▁wormwood	-11581
▁wrinkles	-11582
Coriolanus	-11583
changeably	-11584
▁Alexander	-11585
▁Amazonian	-11586
▁Autolycus	-11587
▁Certainly	-11588
▁Deucalion	-11589
▁Environed	-11590
▁Erroneous	-11591
▁FRANCISCA	-11592
▁Ferdinand	-11593
▁Frederick	-11594
▁Guildhall	-11595
▁Injurious	-11596
▁Leicester	-11597
▁Mamillius	-11598
▁Neighbour	-11599
▁Ourselves	-11600
▁Pronounce	-11601
▁Sometimes	-11602
▁Supposing	-11603
▁Tendering	-11604
▁Unsheathe	-11605
▁Vincetino	-11606
▁Worcester	-11607
▁Yorkshire	-11608
▁accounted	-11609
▁adversary	-11610
▁affecting	-11611
▁affianced	-11612
▁afflicted	-11613
▁amendment	-11614
▁answering	-11615
▁appearing	-11616
▁arbitrate	-11617
▁arrogance	-11618
▁attainder	-11619
▁attentive	-11620
▁austerity	-11621
▁barbarism	-11622
▁begetting	-11623
▁beholders	-11624
▁beseeming	-11625
▁bitterest	-11626
▁boatswain	-11627
▁boundless	-11628
▁bounteous	-11629
▁bountiful	-11630
▁cannibals	-11631
▁carefully	-11632
▁certainty	-11633
▁champions	-11634
▁clergymen	-11635
▁collected	-11636
▁comforter	-11637
▁conducted	-11638
▁confessed	-11639
▁confident	-11640
▁confounds	-11641
▁congealed	-11642
▁conquered	-11643
▁contagion	-11644
▁contrived	-11645
▁convented	-11646
▁cormorant	-11647
▁courtship	-11648
▁coverture	-11649
▁credulous	-11650
▁crotchets	-11651
▁cupbearer	-11652
▁customers	-11653
▁daffodils	-11654
▁deceiving	-11655
▁declining	-11656
▁delicious	-11657
▁departing	-11658
▁depending	-11659
▁deserving	-11660
▁different	-11661
▁dishonest	-11662
▁dissolute	-11663
▁dissolved	-11664
▁distilled	-11665
▁dominions	-11666
▁education	-11667
▁embassage	-11668
▁embassies	-11669
▁encompass	-11670
▁engenders	-11671
▁establish	-11672
▁executing	-11673
▁extempore	-11674
▁fingering	-11675
▁firmament	-11676
▁fourscore	-11677
▁frivolous	-11678
▁fulfilled	-11679
▁functions	-11680
▁furnished	-11681
▁generally	-11682
▁gillyvors	-11683
▁graceless	-11684
▁gratulate	-11685
▁greyhound	-11686
▁grumbling	-11687
▁husbandry	-11688
▁impartial	-11689
▁ingenious	-11690
▁insatiate	-11691
▁justified	-11692
▁learnedly	-11693
▁leisurely	-11694
▁lingering	-11695
▁merciless	-11696
▁mischiefs	-11697
▁monastery	-11698
▁mortality	-11699
▁mountains	-11700
▁murderers	-11701
▁neglected	-11702
▁negligent	-11703
▁numbering	-11704
▁obstacles	-11705
▁officious	-11706
▁overboard	-11707
▁parchment	-11708
▁pardoning	-11709
▁parentage	-11710
▁partisans	-11711
▁patrimony	-11712
▁patroness	-11713
▁perceives	-11714
▁perdition	-11715
▁performed	-11716
▁pertinent	-11717
▁petticoat	-11718
▁plainness	-11719
▁plenteous	-11720
▁ponderous	-11721
▁principal	-11722
▁probation	-11723
▁professes	-11724
▁provision	-11725
▁purchased	-11726
▁qualified	-11727
▁quietness	-11728
▁receiving	-11729
▁recomfort	-11730
▁redoubted	-11731
▁rejoicing	-11732
▁religious	-11733
▁reprehend	-11734
▁resembles	-11735
▁reversion	-11736
▁righteous	-11737
▁semblance	-11738
▁seventeen	-11739
▁signified	-11740
▁sincerity	-11741
▁southward	-11742
▁specially	-11743
▁standards	-11744
▁statesman	-11745
▁stockings	-11746
▁stoutness	-11747
▁strangers	-11748
▁strengths	-11749
▁stripling	-11750
▁stumbling	-11751
▁successes	-11752
▁suggested	-11753
▁supremacy	-11754
▁swallowed	-11755
▁syllables	-11756
▁thankings	-11757
▁tradesmen	-11758
▁transform	-11759
▁traveller	-11760
▁treasures	-11761
▁unadvised	-11762
▁unbruised	-11763
▁universal	-11764
▁unsettled	-11765
▁untainted	-11766
▁unthrifty	-11767
▁violation	-11768
▁vouchsafe	-11769
▁wealthily	-11770
▁wearisome	-11771
▁withholds	-11772
▁worthless	-11773
▁yesterday	-11774
comfortable	-11775
▁Affliction	-11776
▁Archbishop	-11777
▁Benedicite	-11778
▁Conceiving	-11779
▁Convenient	-11780
▁Courageous	-11781
▁Gramercies	-11782
▁Henceforth	-11783
▁Lascivious	-11784
▁Neapolitan	-11785
▁Neighbours	-11786
▁Prodigious	-11787
▁Proportion	-11788
▁Prosperity	-11789
▁abominable	-11790
▁abstinence	-11791
▁acceptance	-11792
▁admonition	-11793
▁ambassador	-11794
▁apprehends	-11795
▁arithmetic	-11796
▁artificial	-11797
▁attendance	-11798
▁attendants	-11799
▁auspicious	-11800
▁birthright	-11801
▁butcheries	-11802
▁carelessly	-11803
▁characters	-11804
▁chattering	-11805
▁cockatrice	-11806
▁compliment	-11807
▁compounded	-11808
▁conquerors	-11809
▁continency	-11810
▁contracted	-11811
▁contradict	-11812
▁convenient	-11813
▁conveyance	-11814
▁courageous	-11815
▁deliberate	-11816
▁delightful	-11817
▁despairing	-11818
▁destroying	-11819
▁discipline	-11820
▁discourses	-11821
▁dishonours	-11822
▁dissension	-11823
▁distraught	-11824
▁encounters	-11825
▁endeavours	-11826
▁everything	-11827
▁excellence	-11828
▁experience	-11829
▁favourites	-11830
▁fellowship	-11831
▁foundation	-11832
▁generation	-11833
▁gentleness	-11834
▁glistering	-11835
▁glittering	-11836
▁greediness	-11837
▁greyhounds	-11838
▁guiltiness	-11839
▁hitherward	-11840
▁honourably	-11841
▁importance	-11842
▁importuned	-11843
▁increaseth	-11844
▁indictment	-11845
▁indirectly	-11846
▁inexorable	-11847
▁infallible	-11848
▁infectious	-11849
▁influences	-11850
▁insensible	-11851
▁instructed	-11852
▁intelligen	-11853
▁malcontent	-11854
▁methoughts	-11855
▁millstones	-11856
▁miscarried	-11857
▁neglecting	-11858
▁negligence	-11859
▁obsequious	-11860
▁packthread	-11861
▁pennyworth	-11862
▁personally	-11863
▁playfellow	-11864
▁preferment	-11865
▁proclaimed	-11866
▁promotions	-11867
▁prophetess	-11868
▁protection	-11869
▁protectors	-11870
▁pursuivant	-11871
▁recreation	-11872
▁restrained	-11873
▁sacrificed	-11874
▁salutation	-11875
▁scandalous	-11876
▁schoolboys	-11877
▁succeeders	-11878
▁succeeding	-11879
▁successful	-11880
▁sulphurous	-11881
▁thoroughly	-11882
▁throughout	-11883
▁tumultuous	-11884
▁unconstant	-11885
▁understood	-11886
▁ungracious	-11887
▁ungrateful	-11888
▁unparallel	-11889
▁unprepared	-11890
▁unreverent	-11891
▁unstanched	-11892
▁wilderness	-11893
▁CHRISTOPHER	-11894
▁Northampton	-11895
▁accompanied	-11896
▁appointment	-11897
▁battlements	-11898
▁benefactors	-11899
▁commendable	-11900
▁complaining	-11901
▁concealment	-11902
▁continuance	-11903
▁dangerously	-11904
▁desperation	-11905
▁differences	-11906
▁disgracious	-11907
▁disobedient	-11908
▁dissentious	-11909
▁dissolution	-11910
▁distraction	-11911
▁earnestness	-11912
▁experienced	-11913
▁expostulate	-11914
▁extremities	-11915
▁forbearance	-11916
▁forwardness	-11917
▁gentlewomen	-11918
▁habiliments	-11919
▁impregnable	-11920
▁incorporate	-11921
▁indignation	-11922
▁information	-11923
▁ingratitude	-11924
▁insinuating	-11925
▁instigation	-11926
▁interrupted	-11927
▁magistrates	-11928
▁maidenheads	-11929
▁necessaries	-11930
▁ostentation	-11931
▁possessions	-11932
▁predominant	-11933
▁presumption	-11934
▁profanation	-11935
▁quarrelling	-11936
▁remembering	-11937
▁stewardship	-11938
▁strangeness	-11939
▁substantial	-11940
▁substitutes	-11941
▁sufficiency	-11942
▁superfluity	-11943
▁superfluous	-11944
▁temperately	-11945
▁therewithal	-11946
▁undertaking	-11947
▁unfortunate	-11948
▁unspeakable	-11949
▁unsuspected	-11950
▁unwholesome	-11951
▁unwillingly	-11952
▁willingness	-11953
▁Christophero	-11954
▁Conspirators	-11955
▁Henceforward	-11956
▁Westmoreland	-11957
▁caterpillars	-11958
▁confederates	-11959
▁conversation	-11960
▁countenances	-11961
▁disobedience	-11962
▁dispositions	-11963
▁handkerchief	-11964
▁misadventure	-11965
▁predecessors	-11966
▁prescription	-11967
▁preservation	-11968
▁strawberries	-11969
▁contradiction	-11970
▁counterpoised	-11971
▁encouragement	-11972
▁everlastingly	-11973
▁forgetfulness	-11974
▁precipitation	-11975
▁transgression	-11976
▁unwillingness	-11977
▁interpretation	-11978
▁unthankfulness	-11979
▁Gloucestershire	-11980
▁interchangeably	-11981
Alla	-11982
acob	-11983
barr	-11984
buzz	-11985
deaf	-11986
drag	-11987
eaux	-11988
echy	-11989
greg	-11990
knit	-11991
obst	-11992
oifs	-11993
olii	-11994
poli	-11995
tney	-11996
▁Buy	-11997
▁lux	-11998
LEMEN	-11999
cox	-12000
whom	-12001
absol	-12002
alnut	-12003
angel	-12004
atomy	-12005
azzle	-12006
built	-12007
crece	-12008
creen	-12009
dalls	-12010
drops	-12011
elaus	-12012
haste	-12013
heirs	-12014
imney	-12015
impse	-12016
incot	-12017
itrav	-12018
knock	-12019
mpery	-12020
rhyme	-12021
risen	-12022
separ	-12023
tonhe	-12024
warks	-12025
whist	-12026
yrcan	-12027
▁Airy	-12028
▁Esse	-12029
▁Gris	-12030
▁Peer	-12031
▁Sabb	-12032
▁Skul	-12033
▁Subd	-12034
▁Trad	-12035
▁Trit	-12036
▁Trot	-12037
▁Wait	-12038
▁bemo	-12039
▁cadd	-12040
▁cymb	-12041
▁daub	-12042
▁echo	-12043
▁inev	-12044
▁lids	-12045
▁oxen	-12046
▁oxli	-12047
▁phee	-12048
▁prud	-12049
▁sorc	-12050
▁spav	-12051
▁text	-12052
▁tipt	-12053
▁wadd	-12054
▁wrap	-12055
Sdeath	-12056
Sigeia	-12057
Sirrah	-12058
TLEMEN	-12059
abbled	-12060
access	-12061
azzled	-12062
breach	-12063
coated	-12064
dinner	-12065
ditary	-12066
dolour	-12067
edalus	-12068
elican	-12069
elutus	-12070
employ	-12071
ermane	-12072
erworn	-12073
framed	-12074
garsop	-12075
geonly	-12076
ground	-12077
hified	-12078
ipline	-12079
ishers	-12080
ivolii	-12081
lackey	-12082
mildly	-12083
oplexy	-12084
ougher	-12085
ourbon	-12086
pefied	-12087
porter	-12088
queror	-12089
ravate	-12090
ravely	-12091
ridget	-12092
ripoli	-12093
robate	-12094
roused	-12095
scapes	-12096
secute	-12097
seeing	-12098
tossed	-12099
tricks	-12100
turned	-12101
uscles	-12102
waving	-12103
▁Adopt	-12104
▁Atlas	-12105
▁Bores	-12106
▁Bugle	-12107
▁Bunch	-12108
▁Clubs	-12109
▁Cotsw	-12110
▁Crass	-12111
▁Crete	-12112
▁Dicky	-12113
▁Dream	-12114
▁Droop	-12115
▁Embar	-12116
▁Essex	-12117
▁Fatal	-12118
▁Flora	-12119
▁Groan	-12120
▁Heirs	-12121
▁Irons	-12122
▁Jacob	-12123
▁Jewel	-12124
▁Lifts	-12125
▁Limit	-12126
▁Limps	-12127
▁Manif	-12128
▁Merry	-12129
▁Needs	-12130
▁Pedas	-12131
▁Penel	-12132
▁Pluto	-12133
▁Royal	-12134
▁Skipp	-12135
▁Slave	-12136
▁Spurr	-12137
▁Starr	-12138
▁Unrip	-12139
▁alias	-12140
▁anvil	-12141
▁auger	-12142
▁balms	-12143
▁claps	-12144
▁cripp	-12145
▁cuore	-12146
▁dulce	-12147
▁ensky	-12148
▁essay	-12149
▁ewers	-12150
▁ferry	-12151
▁gleek	-12152
▁gored	-12153
▁hooks	-12154
▁inaus	-12155
▁jacks	-12156
▁mints	-12157
▁molto	-12158
▁mothy	-12159
▁navel	-12160
▁nutme	-12161
▁palsy	-12162
▁paved	-12163
▁pithy	-12164
▁pulse	-12165
▁ravin	-12166
▁reeky	-12167
▁rents	-12168
▁scabs	-12169
▁sewed	-12170
▁sizes	-12171
▁slipt	-12172
▁solum	-12173
▁stews	-12174
▁style	-12175
▁twinn	-12176
Sicilia	-12177
aedalus	-12178
amworth	-12179
arraign	-12180
ausible	-12181
believe	-12182
beloved	-12183
childed	-12184
darting	-12185
erately	-12186
ermatch	-12187
erpower	-12188
ershade	-12189
erweens	-12190
ewasted	-12191
fashion	-12192
flowing	-12193
haplain	-12194
happily	-12195
hoppers	-12196
hralled	-12197
imroses	-12198
incible	-12199
▁Agen	-12200
▁Cynt	-12201
▁Cypr	-12202
▁Defy	-12203
▁hymn	-12204
▁team	-12205
castle	-12206
erlook	-12207
fathom	-12208
ropper	-12209
rossed	-12210
seemly	-12211
ugurer	-12212
▁Assay	-12213
▁Insol	-12214
▁Judge	-12215
▁Sinon	-12216
▁agued	-12217
▁dedic	-12218
▁gazes	-12219
▁hymns	-12220
▁pumps	-12221
▁slimy	-12222
▁taxes	-12223
▁vigil	-12224
bellied	-12225
dropper	-12226
ergrown	-12227
inhabit	-12228
initive	-12229
ipotent	-12230
irlwind	-12231
itigate	-12232
lderman	-12233
leading	-12234
mblings	-12235
oderate	-12236
omestic	-12237
onville	-12238
ordeaux	-12239
pierced	-12240
plagued	-12241
quality	-12242
quisher	-12243
quisite	-12244
ripture	-12245
savoury	-12246
secutor	-12247
servant	-12248
service	-12249
shotten	-12250
stained	-12251
suckers	-12252
sucking	-12253
uscadel	-12254
verdict	-12255
versely	-12256
vocable	-12257
warrant	-12258
whither	-12259
yrcania	-12260
▁Adopts	-12261
▁Agenor	-12262
▁Agreed	-12263
▁Aiming	-12264
▁Albeit	-12265
▁Armies	-12266
▁Barely	-12267
▁Beggar	-12268
▁Bretag	-12269
▁Broken	-12270
▁Brutus	-12271
▁Caucas	-12272
▁Courts	-12273
▁Cretan	-12274
▁Cynthi	-12275
▁Cyprus	-12276
▁Digest	-12277
▁Diomed	-12278
▁Doting	-12279
▁Dreams	-12280
▁Ensues	-12281
▁Ethiop	-12282
▁Famous	-12283
▁Ferrer	-12284
▁Fillip	-12285
▁Gallia	-12286
▁Giving	-12287
▁Gladly	-12288
▁Hardly	-12289
▁Holloa	-12290
▁Hourly	-12291
▁Humbly	-12292
▁Hunger	-12293
▁Inclin	-12294
▁Junius	-12295
▁Lesser	-12296
▁Listen	-12297
▁Living	-12298
▁Lonely	-12299
Deny	-12300
They	-12301
alph	-12302
geny	-12303
hurt	-12304
iddl	-12305
mete	-12306
vato	-12307
Still	-12308
Strat	-12309
aniel	-12310
civil	-12311
nymph	-12312
oseph	-12313
▁Cato	-12314
▁Ridd	-12315
▁daws	-12316
▁hews	-12317
▁jaws	-12318
crated	-12319
crates	-12320
nymphs	-12321
ricado	-12322
▁Ralph	-12323
▁fiddl	-12324
▁flaws	-12325
▁hawth	-12326
catcher	-12327
hurtful	-12328
▁Joseph	-12329
▁Oppose	-12330
▁Pedasc	-12331
▁Pedlar	-12332
▁People	-12333
▁Praise	-12334
▁Preser	-12335
▁Profan	-12336
▁Purcha	-12337
▁Refuse	-12338
▁Rideth	-12339
▁Rogero	-12340
▁Satisf	-12341
▁Saving	-12342
▁School	-12343
▁Scorns	-12344
▁Selves	-12345
▁Silver	-12346
▁Simple	-12347
▁Smalus	-12348
▁Snakes	-12349
▁Stifle	-12350
▁Suffer	-12351
▁Tetchy	-12352
▁Tyrian	-12353
▁Unbind	-12354
▁Unbuck	-12355
▁Unchar	-12356
▁Usurps	-12357
▁Varlet	-12358
▁Vilely	-12359
▁Vitrav	-12360
▁Wincot	-12361
▁Wisely	-12362
▁Wooing	-12363
▁allays	-12364
▁ampler	-12365
▁barbar	-12366
▁barded	-12367
▁bedaub	-12368
▁begnaw	-12369
▁bemoan	-12370
▁bondsl	-12371
▁bouted	-12372
▁cardin	-12373
▁catalo	-12374
▁cedars	-12375
▁celest	-12376
▁chafes	-12377
▁cloaks	-12378
▁convoy	-12379
▁coxcom	-12380
▁diffic	-12381
▁disbur	-12382
▁dulcet	-12383
▁dumbly	-12384
▁edicts	-12385
▁elvish	-12386
▁epitap	-12387
▁establ	-12388
▁fettle	-12389
▁fisher	-12390
▁flocks	-12391
▁foeman	-12392
▁gazers	-12393
▁gelded	-12394
▁givest	-12395
▁grassy	-12396
▁greasy	-12397
▁halves	-12398
▁havens	-12399
▁Falls	-12400
▁Trail	-12401
▁bulks	-12402
▁cools	-12403
▁hawks	-12404
▁powde	-12405
▁rigor	-12406
▁summa	-12407
diments	-12408
married	-12409
niments	-12410
nointed	-12411
utually	-12412
▁Bolder	-12413
▁Divide	-12414
▁Relate	-12415
▁Relish	-12416
▁bowspr	-12417
▁deceiv	-12418
▁descry	-12419
▁hooded	-12420
▁hooted	-12421
▁howsoe	-12422
▁kernel	-12423
▁lamely	-12424
▁lavish	-12425
▁lecher	-12426
▁levity	-12427
▁luxury	-12428
▁maketh	-12429
▁martyr	-12430
▁moonsh	-12431
▁nostra	-12432
▁nymphs	-12433
▁observ	-12434
▁oxlips	-12435
▁pantal	-12436
▁pantry	-12437
▁parson	-12438
▁paucas	-12439
▁peaces	-12440
▁pestil	-12441
▁prefix	-12442
▁prejud	-12443
▁prints	-12444
▁prizes	-12445
▁pulled	-12446
▁puller	-12447
▁pupils	-12448
▁pushed	-12449
▁quests	-12450
▁rarity	-12451
▁raying	-12452
▁recoil	-12453
▁reechy	-12454
▁revels	-12455
▁rheums	-12456
▁ribbon	-12457
▁ripens	-12458
▁ropery	-12459
▁rubies	-12460
▁scapes	-12461
▁sconce	-12462
▁seizes	-12463
▁smacks	-12464
▁spirts	-12465
▁stewed	-12466
▁stoics	-12467
▁strays	-12468
▁subsid	-12469
▁tetchy	-12470
▁tiptoe	-12471
▁undeaf	-12472
▁undesc	-12473
▁unharm	-12474
▁unload	-12475
▁unmann	-12476
▁unskil	-12477
▁untrus	-12478
▁urgent	-12479
▁vapour	-12480
▁vaunts	-12481
▁viands	-12482
▁weaved	-12483
▁weeded	-12484
▁whosoe	-12485
▁wiping	-12486
▁wizard	-12487
ENTLEMEN	-12488
Farewell	-12489
Sicinius	-12490
absolver	-12491
begotten	-12492
bewasted	-12493
boarding	-12494
cesoever	-12495
contract	-12496
ctorship	-12497
disposed	-12498
dragoned	-12499
Cuc	-12500
coff	-12501
ebos	-12502
offs	-12503
prop	-12504
▁tug	-12505
brook	-12506
desby	-12507
edgea	-12508
elect	-12509
logic	-12510
tuned	-12511
▁Affr	-12512
▁Jamy	-12513
▁crop	-12514
▁ewer	-12515
coffin	-12516
crazed	-12517
icicle	-12518
offing	-12519
orizer	-12520
rieves	-12521
▁Ancus	-12522
▁Error	-12523
▁Shuts	-12524
▁Slain	-12525
▁fifth	-12526
▁logic	-12527
▁mules	-12528
▁tuned	-12529
handise	-12530
▁Argues	-12531
▁Depart	-12532
▁Marcus	-12533
▁abhors	-12534
▁delect	-12535
▁icicle	-12536
▁parlor	-12537
▁passed	-12538
▁percus	-12539
▁pranks	-12540
▁roused	-12541
▁scoffs	-12542
▁uglier	-12543
Cucullus	-12544
dropping	-12545
edgeable	-12546
ediction	-12547
efactors	-12548
erthrown	-12549
farewell	-12550
giveness	-12551
gracious	-12552
gressing	-12553
imonious	-12554
indstone	-12555
inescore	-12556
irlwinds	-12557
iscation	-12558
isemaker	-12559
ishonour	-12560
isshapen	-12561
itutions	-12562
junction	-12563
knocking	-12564
lordship	-12565
matching	-12566
ontinent	-12567
ordinary	-12568
pperspur	-12569
presseth	-12570
quements	-12571
secrated	-12572
seducing	-12573
staining	-12574
stantial	-12575
stitches	-12576
treading	-12577
urgeonly	-12578
violable	-12579
violator	-12580
vocation	-12581
whelming	-12582
▁Adopted	-12583
▁Affront	-12584
▁Bourbon	-12585
▁Bridget	-12586
▁Bruised	-12587
▁Crassus	-12588
▁Dabbled	-12589
▁Dauphin	-12590
▁Deposed	-12591
▁Diomede	-12592
▁Divided	-12593
▁Duchess	-12594
▁Embrace	-12595
▁Ensuing	-12596
▁Feather	-12597
▁Ferrers	-12598
▁Fertile	-12599
branch	-12600
fishes	-12601
▁cooks	-12602
▁rends	-12603
▁scald	-12604
▁waved	-12605
▁waxed	-12606
gligent	-12607
▁Tickle	-12608
▁border	-12609
▁boughs	-12610
▁buzzed	-12611
▁flatly	-12612
▁franch	-12613
▁frankl	-12614
▁gossam	-12615
▁inferr	-12616
▁locked	-12617
▁lockra	-12618
▁mickle	-12619
▁miscar	-12620
▁ravens	-12621
▁scaled	-12622
▁shrubs	-12623
▁shrugs	-12624
▁shrunk	-12625
▁tickle	-12626
▁unreal	-12627
▁wether	-12628
▁Despair	-12629
▁Disting	-12630
▁Fewness	-12631
▁Forsake	-12632
▁Forslow	-12633
▁Fridays	-12634
▁Governs	-12635
▁Grissel	-12636
▁Groping	-12637
▁Happier	-12638
▁Hoisted	-12639
▁Immoder	-12640
▁Infused	-12641
▁Ingrate	-12642
▁Kissing	-12643
▁Ladders	-12644
▁Lambert	-12645
▁Lucrece	-12646
▁Melting	-12647
▁Mounted	-12648
▁Neglect	-12649
▁Obeying	-12650
▁Olympus	-12651
▁Partlet	-12652
▁Peering	-12653
▁Pierced	-12654
▁Pitiful	-12655
▁Praised	-12656
▁Provide	-12657
▁Provoke	-12658
▁Pursued	-12659
▁Recover	-12660
▁Refused	-12661
▁Requite	-12662
▁Rescued	-12663
▁Revolts	-12664
▁Royally	-12665
▁Sabbath	-12666
▁Satisfy	-12667
▁Seduced	-12668
▁Setebos	-12669
▁Shorten	-12670
▁Sojourn	-12671
▁Springs	-12672
▁Subdues	-12673
▁Subject	-12674
▁Suffice	-12675
▁Talkers	-12676
▁Tiberio	-12677
▁Tickled	-12678
▁Touches	-12679
▁Traitor	-12680
▁Tyrants	-12681
▁Unsepar	-12682
▁Untutor	-12683
▁Unvener	-12684
▁Velutus	-12685
▁Wailing	-12686
▁Wanting	-12687
▁Wishing	-12688
▁Worship	-12689
▁Wotting	-12690
▁Yielded	-12691
▁abjects	-12692
▁accompl	-12693
▁accompt	-12694
▁aground	-12695
▁altered	-12696
▁amiable	-12697
▁amounts	-12698
▁anatomy	-12699
beys	-12700
ycur	-12701
bardy	-12702
bscri	-12703
choes	-12704
cribe	-12705
gotha	-12706
itoes	-12707
phere	-12708
ycurg	-12709
▁Duns	-12710
▁Misc	-12711
▁Quar	-12712
▁Runs	-12713
▁ista	-12714
▁tuns	-12715
abriel	-12716
arthen	-12717
isaged	-12718
orgive	-12719
stoned	-12720
titoes	-12721
▁Added	-12722
▁Misgu	-12723
▁Quint	-12724
▁Swarm	-12725
▁Unarm	-12726
▁abbey	-12727
▁bolts	-12728
▁bruit	-12729
▁brunt	-12730
▁caged	-12731
▁finer	-12732
▁foxes	-12733
▁gnats	-12734
▁invis	-12735
▁lulls	-12736
Forgive	-12737
cricket	-12738
olgotha	-12739
ombardy	-12740
ushions	-12741
visaged	-12742
▁Envied	-12743
▁Forgot	-12744
▁Grapes	-12745
▁Lycurg	-12746
▁Switch	-12747
▁bruise	-12748
▁cabins	-12749
▁crazed	-12750
▁demise	-12751
▁echoes	-12752
▁hewing	-12753
▁inviol	-12754
▁legion	-12755
▁matron	-12756
▁prized	-12757
▁smutch	-12758
▁sphere	-12759
▁stupid	-12760
▁switch	-12761
▁undoes	-12762
asonably	-12763
bscribed	-12764
▁Address	-12765
▁Gabriel	-12766
▁Honesty	-12767
▁Misused	-12768
▁Quarrel	-12769
▁Quintus	-12770
▁Suspect	-12771
▁approof	-12772
▁arbitre	-12773
▁athwart	-12774
▁augurer	-12775
▁austere	-12776
▁basilis	-12777
▁bawling	-12778
▁beareth	-12779
▁becomed	-12780
▁beseems	-12781
▁boarded	-12782
▁boiling	-12783
▁bolster	-12784
▁brushed	-12785
▁caddiss	-12786
▁caverns	-12787
▁charnel	-12788
▁chiders	-12789
▁chiding	-12790
▁chimney	-12791
▁chopped	-12792
▁choughs	-12793
▁chronic	-12794
▁clients	-12795
▁congreg	-12796
▁connive	-12797
▁convert	-12798
▁convict	-12799
▁inky	-12800
dainty	-12801
▁Finds	-12802
▁hinds	-12803
▁lurks	-12804
▁milch	-12805
icatest	-12806
iercing	-12807
▁Fairly	-12808
▁Greeks	-12809
▁Ransom	-12810
▁bathed	-12811
▁button	-12812
▁dowery	-12813
▁grooms	-12814
▁knacks	-12815
▁nicety	-12816
▁serpig	-12817
▁trifle	-12818
▁unmade	-12819
▁unmask	-12820
▁unmeet	-12821
▁vented	-12822
▁ventur	-12823
▁warder	-12824
cheering	-12825
ertainty	-12826
pardonne	-12827
sheathed	-12828
▁Beggars	-12829
▁Dispark	-12830
▁Scratch	-12831
▁almsman	-12832
▁arrests	-12833
▁billets	-12834
▁billows	-12835
▁buttock	-12836
▁collars	-12837
▁collect	-12838
▁copious	-12839
▁couples	-12840
▁coxcomb	-12841
▁cradled	-12842
▁crammed	-12843
▁cricket	-12844
▁dallied	-12845
▁darling	-12846
▁dashing	-12847
▁dauphin	-12848
▁dawning	-12849
▁decease	-12850
▁detects	-12851
▁discipl	-12852
▁discomf	-12853
▁display	-12854
▁disprop	-12855
▁dolours	-12856
▁dragons	-12857
▁driveth	-12858
▁duchess	-12859
▁dulness	-12860
▁earthen	-12861
▁enamour	-12862
▁engrave	-12863
▁entitle	-12864
▁environ	-12865
▁epitaph	-12866
▁epitome	-12867
▁espouse	-12868
▁essence	-12869
▁eyeball	-12870
▁fantasy	-12871
▁fathoms	-12872
▁fisting	-12873
▁fitteth	-12874
▁fixture	-12875
▁flaying	-12876
▁flecked	-12877
▁footboy	-12878
▁freezes	-12879
▁fringed	-12880
▁fulfill	-12881
▁galleys	-12882
▁germane	-12883
▁gesture	-12884
▁glimpse	-12885
▁grudges	-12886
▁guiding	-12887
▁halbert	-12888
▁haunted	-12889
▁hawking	-12890
▁hoarded	-12891
▁hottest	-12892
▁howbeit	-12893
▁humbles	-12894
▁inquiry	-12895
▁insurre	-12896
▁irksome	-12897
▁jarring	-12898
▁jumpeth	-12899
bwe	-12900
jax	-12901
buts	-12902
moon	-12903
▁Owe	-12904
annon	-12905
apper	-12906
braid	-12907
bwebs	-12908
dares	-12909
iwork	-12910
shaft	-12911
uliar	-12912
▁Ajax	-12913
▁Elys	-12914
▁Mann	-12915
▁Nips	-12916
▁bagp	-12917
▁fann	-12918
▁flax	-12919
▁hips	-12920
▁snea	-12921
▁tips	-12922
adders	-12923
appear	-12924
cannon	-12925
heathe	-12926
ilbert	-12927
reaker	-12928
▁Breck	-12929
▁Clapp	-12930
▁Doubt	-12931
▁Elysi	-12932
▁Filth	-12933
▁Priam	-12934
▁Privy	-12935
▁drank	-12936
▁fixes	-12937
▁maker	-12938
▁slips	-12939
▁snail	-12940
▁taker	-12941
breaker	-12942
derived	-12943
eculiar	-12944
ivering	-12945
▁Attach	-12946
▁Falcon	-12947
▁Impair	-12948
▁Impute	-12949
▁Priest	-12950
▁cobble	-12951
▁stares	-12952
▁treats	-12953
▁Elysium	-12954
▁Gilbert	-12955
▁Norbery	-12956
▁Officed	-12957
▁Upbraid	-12958
▁applied	-12959
▁bagpipe	-12960
▁catched	-12961
▁cobbled	-12962
▁cobwebs	-12963
▁decayed	-12964
▁hilding	-12965
▁inkling	-12966
▁knavish	-12967
▁lanceth	-12968
▁lantern	-12969
▁leagues	-12970
▁leasing	-12971
▁lockram	-12972
▁margent	-12973
▁martial	-12974
▁matches	-12975
▁matrons	-12976
▁measles	-12977
▁meddler	-12978
▁medlars	-12979
▁merrier	-12980
▁mettest	-12981
▁mixture	-12982
▁motions	-12983
▁muscles	-12984
▁napping	-12985
▁naughty	-12986
▁nettled	-12987
▁newness	-12988
▁nodding	-12989
▁novices	-12990
▁nursery	-12991
▁objects	-12992
▁obscene	-12993
▁omitted	-12994
▁outcast	-12995
▁parsley	-12996
▁peaches	-12997
▁pedlars	-12998
▁peepeth	-12999
gical	-13000
▁bonf	-13001
bitten	-13002
flayed	-13003
olical	-13004
seller	-13005
▁Clean	-13006
▁Clear	-13007
▁Tinct	-13008
▁moods	-13009
▁napes	-13010
▁splay	-13011
▁splin	-13012
bearing	-13013
bolical	-13014
estical	-13015
iterran	-13016
meaning	-13017
mongers	-13018
plotted	-13019
usewife	-13020
▁Crying	-13021
▁Furies	-13022
▁Nearer	-13023
▁Soundp	-13024
▁Whiter	-13025
▁bucket	-13026
▁costly	-13027
▁debile	-13028
▁decked	-13029
▁enfold	-13030
▁knotty	-13031
▁magnif	-13032
▁messes	-13033
▁occupy	-13034
▁splits	-13035
▁superf	-13036
▁velure	-13037
▁volupt	-13038
▁widens	-13039
▁yarely	-13040
iterrane	-13041
onstrain	-13042
spitable	-13043
tonheath	-13044
▁Curster	-13045
▁Himself	-13046
▁blotted	-13047
▁buckled	-13048
▁coronet	-13049
▁curtail	-13050
▁extinct	-13051
▁fawning	-13052
▁peereth	-13053
▁peering	-13054
▁penetra	-13055
▁perdona	-13056
▁perdura	-13057
▁picking	-13058
▁pierced	-13059
▁pillars	-13060
▁pillory	-13061
▁pirates	-13062
▁plagued	-13063
▁planets	-13064
▁plentif	-13065
▁pockets	-13066
▁porring	-13067
▁precurs	-13068
▁preferr	-13069
▁progeny	-13070
▁prudent	-13071
▁psalter	-13072
▁pugging	-13073
▁quinces	-13074
▁racking	-13075
▁rainbow	-13076
▁renders	-13077
▁reverse	-13078
▁reverso	-13079
▁richest	-13080
▁riddles	-13081
▁robbing	-13082
▁rougher	-13083
▁rubbish	-13084
▁rudesby	-13085
▁ruffian	-13086
▁rumours	-13087
▁rupture	-13088
▁saddles	-13089
▁savoury	-13090
▁scraped	-13091
▁screech	-13092
▁seduced	-13093
▁serpigo	-13094
▁sheathe	-13095
▁shrived	-13096
▁shrouds	-13097
▁simples	-13098
▁simplic	-13099
▁Ign	-13100
abris	-13101
gnost	-13102
▁Slys	-13103
charge	-13104
coming	-13105
gative	-13106
▁Kneel	-13107
▁Scrat	-13108
▁portc	-13109
▁salut	-13110
▁snowy	-13111
▁unele	-13112
▁warns	-13113
▁wrung	-13114
fathers	-13115
iculate	-13116
igested	-13117
ivative	-13118
ouchsaf	-13119
uddenly	-13120
▁Charge	-13121
▁Ignomy	-13122
▁Kindly	-13123
▁beguil	-13124
▁cherry	-13125
▁cherub	-13126
▁helmet	-13127
▁inquis	-13128
▁naming	-13129
▁rarely	-13130
▁rustle	-13131
▁salter	-13132
▁splend	-13133
allabris	-13134
ervative	-13135
▁Confirm	-13136
▁Seeming	-13137
▁appeals	-13138
▁crafted	-13139
▁portent	-13140
▁pricked	-13141
▁redeems	-13142
▁resists	-13143
▁roaming	-13144
▁skilful	-13145
▁slights	-13146
▁sluiced	-13147
▁smilest	-13148
▁soothed	-13149
▁sourest	-13150
▁spaniel	-13151
▁spawned	-13152
▁spectac	-13153
▁spleens	-13154
▁spokest	-13155
▁stagger	-13156
▁starkly	-13157
▁steaded	-13158
▁steeled	-13159
▁studded	-13160
▁subdues	-13161
▁suggest	-13162
▁summons	-13163
▁sunders	-13164
▁superst	-13165
▁surmise	-13166
▁sustain	-13167
▁swooned	-13168
▁sworest	-13169
▁taverns	-13170
▁teaches	-13171
▁terrors	-13172
▁thicket	-13173
▁thrifts	-13174
▁tinkers	-13175
▁topsail	-13176
▁totally	-13177
▁touched	-13178
▁trimmed	-13179
▁trovato	-13180
▁tugging	-13181
▁turtles	-13182
▁twinkle	-13183
▁twisted	-13184
▁unbegot	-13185
▁unblown	-13186
▁unbuild	-13187
▁undoubt	-13188
▁unfolds	-13189
▁unhorse	-13190
▁unloads	-13191
▁unmusic	-13192
▁unscarr	-13193
▁unscour	-13194
▁unstaid	-13195
▁unsworn	-13196
▁unwares	-13197
▁usuries	-13198
▁valleys	-13199
ibel	-13200
zzle	-13201
▁Hob	-13202
▁syc	-13203
▁syn	-13204
▁zod	-13205
cuing	-13206
dowry	-13207
ibans	-13208
ipped	-13209
ipple	-13210
raded	-13211
unuch	-13212
▁Foes	-13213
▁doxy	-13214
▁miry	-13215
▁muzz	-13216
▁oaks	-13217
Though	-13218
aribel	-13219
eaters	-13220
riages	-13221
▁Accom	-13222
▁Unlaw	-13223
▁Water	-13224
▁cases	-13225
▁hilts	-13226
▁pages	-13227
▁potch	-13228
▁sycam	-13229
▁synod	-13230
▁troll	-13231
▁waxes	-13232
▁zodia	-13233
ederary	-13234
ontroll	-13235
prising	-13236
rolling	-13237
▁Accord	-13238
▁Accuse	-13239
▁Broach	-13240
▁Canker	-13241
▁Depose	-13242
▁Mildly	-13243
▁Minerv	-13244
▁Minion	-13245
▁Proser	-13246
▁Smiles	-13247
▁aching	-13248
▁broker	-13249
▁coffer	-13250
▁enroll	-13251
▁eunuch	-13252
▁exclam	-13253
▁goaded	-13254
▁havior	-13255
▁hipped	-13256
▁horsed	-13257
▁lonely	-13258
▁nipple	-13259
▁weeder	-13260
▁zodiac	-13261
▁Accords	-13262
▁Exceeds	-13263
▁Minerva	-13264
▁Proserp	-13265
▁drizzle	-13266
▁muzzled	-13267
▁satiety	-13268
▁seasons	-13269
▁varlets	-13270
▁vassals	-13271
▁vesture	-13272
▁vouched	-13273
▁vulgars	-13274
▁waddled	-13275
▁wakened	-13276
▁wanders	-13277
▁warrior	-13278
▁waverer	-13279
▁wearers	-13280
▁winking	-13281
▁woollen	-13282
▁yellows	-13283
▁zealous	-13284
▁zodiacs	-13285
Stratford	-13286
achieving	-13287
appearing	-13288
conceived	-13289
deafening	-13290
deserving	-13291
entivolii	-13292
hardening	-13293
haritable	-13294
interpret	-13295
meritable	-13296
onouncing	-13297
onsidered	-13298
onstrance	-13299
brey	-13300
luce	-13301
skin	-13302
welt	-13303
poral	-13304
▁Berg	-13305
▁Berm	-13306
▁ensn	-13307
graced	-13308
recked	-13309
▁Brach	-13310
▁Brags	-13311
▁Dwelt	-13312
▁Exped	-13313
▁apric	-13314
▁chats	-13315
▁chatt	-13316
▁dribb	-13317
▁drier	-13318
▁globe	-13319
▁kerns	-13320
▁spurr	-13321
▁squir	-13322
liances	-13323
▁Aubrey	-13324
▁Bergam	-13325
▁Braved	-13326
▁Ghosts	-13327
▁Scales	-13328
▁Supper	-13329
▁advert	-13330
▁blades	-13331
▁bodkin	-13332
▁drives	-13333
▁ingots	-13334
▁sprite	-13335
▁squash	-13336
▁squier	-13337
▁Bergamo	-13338
▁Bermoot	-13339
▁Berwick	-13340
▁Players	-13341
▁Scandal	-13342
▁Wrecked	-13343
▁burying	-13344
▁digging	-13345
▁dresser	-13346
▁figures	-13347
▁furnace	-13348
▁murrain	-13349
▁refrain	-13350
▁revolts	-13351
▁stamped	-13352
▁sucking	-13353
ossessing	-13354
pothecary	-13355
raybeards	-13356
revocable	-13357
rindstone	-13358
whistling	-13359
▁Advantag	-13360
▁Advocate	-13361
▁Affright	-13362
▁Allaying	-13363
▁Allowing	-13364
▁Approach	-13365
▁Assemble	-13366
▁Bequeath	-13367
▁Bonville	-13368
▁Bordeaux	-13369
▁Breaking	-13370
▁Bretagne	-13371
▁Business	-13372
▁Calibans	-13373
▁Caucasus	-13374
▁Claribel	-13375
▁Condemns	-13376
▁Confound	-13377
▁Construe	-13378
▁Contempt	-13379
▁Cotswold	-13380
▁Countess	-13381
▁Courtney	-13382
▁Darraign	-13383
▁Defiance	-13384
▁Deposing	-13385
▁Divinely	-13386
▁Dreaming	-13387
▁Dunsmore	-13388
▁Familiar	-13389
▁Flanders	-13390
▁Forewarn	-13391
▁Golgotha	-13392
▁Gramercy	-13393
▁Howlings	-13394
▁Hyrcania	-13395
▁Imprison	-13396
▁Infusing	-13397
▁Insolent	-13398
▁Instinct	-13399
hests	-13400
whate	-13401
▁Appl	-13402
gorged	-13403
▁Moved	-13404
▁Remit	-13405
▁grubs	-13406
▁oddly	-13407
▁skyey	-13408
▁slays	-13409
▁tapst	-13410
▁ungen	-13411
▁vexed	-13412
actions	-13413
bsolute	-13414
courage	-13415
idences	-13416
▁Commun	-13417
▁Remain	-13418
▁Remove	-13419
▁Retain	-13420
▁Retire	-13421
▁Takest	-13422
▁concer	-13423
▁concub	-13424
▁concup	-13425
▁tapers	-13426
▁tapest	-13427
▁tested	-13428
▁unmoan	-13429
▁vaulty	-13430
unctions	-13431
▁Applaud	-13432
▁Beloved	-13433
▁Favours	-13434
▁Spakest	-13435
▁Whisper	-13436
▁behalfs	-13437
▁behests	-13438
▁concord	-13439
▁disguis	-13440
▁hazards	-13441
▁immured	-13442
▁islands	-13443
▁lodgers	-13444
▁mainten	-13445
▁meteors	-13446
▁offered	-13447
▁repeals	-13448
▁riotous	-13449
▁sinking	-13450
▁smooths	-13451
▁spakest	-13452
▁strewed	-13453
▁ungenit	-13454
▁withdra	-13455
▁Absolute	-13456
▁Apparent	-13457
▁Lombardy	-13458
▁Manifest	-13459
▁Mariners	-13460
▁Measured	-13461
▁Measures	-13462
▁Menelaus	-13463
▁Misguide	-13464
▁Olympian	-13465
▁Opposing	-13466
▁Piercing	-13467
▁Procures	-13468
▁Prodigal	-13469
▁Properly	-13470
▁Refusing	-13471
▁Repented	-13472
▁Reprieve	-13473
▁Requires	-13474
▁Revenged	-13475
▁Riddling	-13476
▁Scorning	-13477
▁Seducing	-13478
▁Sinfully	-13479
▁Sixscore	-13480
▁Skulking	-13481
▁Sleeping	-13482
▁Soldiers	-13483
▁Somewhat	-13484
▁Subjects	-13485
▁Suddenly	-13486
▁Sugarsop	-13487
▁Supplied	-13488
▁Swarming	-13489
▁Teaching	-13490
▁Thorough	-13491
▁Tickling	-13492
▁Tincture	-13493
▁Torments	-13494
▁Trembled	-13495
▁Uncharit	-13496
▁Unpeople	-13497
▁Unseemly	-13498
▁Unwieldy	-13499
woe	-13500
ysm	-13501
?--'	-13502
atica	-13503
large	-13504
larum	-13505
lical	-13506
whelp	-13507
▁Naps	-13508
▁feeb	-13509
▁flea	-13510
▁paly	-13511
Maries	-13512
ipping	-13513
isping	-13514
reased	-13515
riatic	-13516
▁Leads	-13517
▁Minos	-13518
▁abysm	-13519
▁bases	-13520
▁basin	-13521
▁basis	-13522
▁debts	-13523
▁maims	-13524
blesome	-13525
emnants	-13526
fitable	-13527
ropping	-13528
▁Prefer	-13529
▁Report	-13530
▁Rights	-13531
▁basest	-13532
▁budget	-13533
▁feebly	-13534
▁frolic	-13535
▁hunted	-13536
▁misses	-13537
▁plumes	-13538
▁portly	-13539
▁quarts	-13540
▁unsafe	-13541
lication	-13542
▁Angelic	-13543
▁Nourish	-13544
▁budding	-13545
▁bussing	-13546
▁chasing	-13547
▁daggers	-13548
▁enlarge	-13549
▁fleeter	-13550
▁lisping	-13551
▁newborn	-13552
▁thrifty	-13553
▁wolvish	-13554
▁woodman	-13555
▁wrecked	-13556
devouring	-13557
▁Adriatic	-13558
▁Angelica	-13559
▁Dropping	-13560
▁Remnants	-13561
▁Vagabond	-13562
▁Valentin	-13563
▁Valentio	-13564
▁Villains	-13565
▁Vitravio	-13566
▁abhorred	-13567
▁absolved	-13568
▁abstains	-13569
▁abstract	-13570
▁adjudged	-13571
▁afflicts	-13572
▁altitude	-13573
▁amazedly	-13574
▁ambuscad	-13575
▁ancestor	-13576
▁apoplexy	-13577
▁attempts	-13578
▁avouches	-13579
▁becomest	-13580
▁becoming	-13581
▁beguiles	-13582
▁bemoiled	-13583
▁bereaved	-13584
▁bescreen	-13585
▁bestowed	-13586
▁bladders	-13587
▁bondmaid	-13588
▁bonfires	-13589
▁bonneted	-13590
▁bowsprit	-13591
▁brandish	-13592
▁breaches	-13593
▁breeches	-13594
▁buzzards	-13595
▁calmness	-13596
▁canopies	-13597
▁catching	-13598
▁celerity	-13599
hung	-13600
leaf	-13601
owdy	-13602
pane	-13603
supp	-13604
uddy	-13605
urdy	-13606
Scape	-13607
folks	-13608
oteus	-13609
quean	-13610
unged	-13611
▁Coin	-13612
▁Foot	-13613
▁Kept	-13614
▁Soon	-13615
▁Virg	-13616
▁Wept	-13617
▁diam	-13618
▁dote	-13619
▁fane	-13620
▁tard	-13621
ensive	-13622
hungry	-13623
idency	-13624
ormity	-13625
racian	-13626
stools	-13627
▁Muddy	-13628
▁diale	-13629
▁dowdy	-13630
▁flote	-13631
▁heapt	-13632
▁joins	-13633
▁louts	-13634
▁quote	-13635
▁usure	-13636
aptized	-13637
cluding	-13638
killing	-13639
▁bewept	-13640
▁blamed	-13641
▁delays	-13642
▁denote	-13643
▁flamed	-13644
▁flouts	-13645
▁sturdy	-13646
▁swerve	-13647
▁unwept	-13648
mutation	-13649
supposed	-13650
▁Filling	-13651
▁Grecian	-13652
▁Pilates	-13653
▁Piteous	-13654
▁Plunged	-13655
▁Proteus	-13656
▁abusing	-13657
▁accuses	-13658
▁brooked	-13659
▁carping	-13660
▁circumm	-13661
▁circums	-13662
▁dialect	-13663
▁diamond	-13664
▁heaping	-13665
▁limping	-13666
▁physics	-13667
▁tardied	-13668
▁usurers	-13669
▁Petrucio	-13670
▁Thracian	-13671
▁Virgilia	-13672
▁baptized	-13673
▁chapless	-13674
▁cheapest	-13675
▁cherubim	-13676
▁chopping	-13677
▁clangour	-13678
▁cleaving	-13679
▁clogging	-13680
▁colliers	-13681
▁coloured	-13682
▁combless	-13683
▁concupis	-13684
▁conflict	-13685
▁consists	-13686
▁corporal	-13687
▁corrects	-13688
▁covenant	-13689
▁covetous	-13690
▁coxcombs	-13691
▁cozeners	-13692
▁crickets	-13693
▁dallying	-13694
▁darkened	-13695
▁deafness	-13696
▁degraded	-13697
▁delaying	-13698
▁desirers	-13699
▁Pu	-13700
dead	-13701
tack	-13702
unci	-13703
unge	-13704
▁jun	-13705
▁mio	-13706
clasp	-13707
endix	-13708
esies	-13709
llown	-13710
manly	-13711
ostle	-13712
ptent	-13713
quick	-13714
seven	-13715
stick	-13716
uties	-13717
▁Char	-13718
▁NICH	-13719
▁News	-13720
▁Prep	-13721
▁Publ	-13722
▁Spir	-13723
▁Tire	-13724
▁garb	-13725
▁gnat	-13726
▁gogs	-13727
▁junk	-13728
▁marj	-13729
▁spun	-13730
chered	-13731
estick	-13732
igness	-13733
indful	-13734
isance	-13735
orters	-13736
pensed	-13737
purcha	-13738
sticks	-13739
▁Cease	-13740
▁Fated	-13741
▁Maint	-13742
▁bawds	-13743
▁beest	-13744
▁clapp	-13745
▁consp	-13746
▁delic	-13747
▁honor	-13748
▁outra	-13749
▁spire	-13750
▁tough	-13751
▁truce	-13752
▁truck	-13753
▁twist	-13754
▁unwas	-13755
altiers	-13756
eisance	-13757
quicken	-13758
▁NICHOL	-13759
▁Public	-13760
▁duties	-13761
▁egally	-13762
▁fasten	-13763
▁marjor	-13764
▁plunge	-13765
▁stayed	-13766
llowness	-13767
▁Charges	-13768
▁Intents	-13769
▁Spirits	-13770
▁Unclasp	-13771
▁apostle	-13772
▁denunci	-13773
▁divides	-13774
▁easiest	-13775
▁fiddler	-13776
▁harness	-13777
▁hooting	-13778
▁junkets	-13779
▁lapsing	-13780
▁offends	-13781
▁plebeii	-13782
▁septent	-13783
▁truckle	-13784
▁unswept	-13785
purchased	-13786
▁NICHOLAS	-13787
▁Saltiers	-13788
▁appendix	-13789
▁controll	-13790
▁desolate	-13791
▁detected	-13792
▁diamonds	-13793
▁diligent	-13794
▁disbench	-13795
▁disliken	-13796
▁dislikes	-13797
▁disobeys	-13798
▁disquiet	-13799
--'	-13800
oci	-13801
spe	-13802
▁Ju	-13803
Hell	-13804
down	-13805
eppe	-13806
erce	-13807
nger	-13808
oice	-13809
orum	-13810
▁Bum	-13811
▁Edm	-13812
▁cue	-13813
▁hue	-13814
▁ris	-13815
ciant	-13816
etter	-13817
found	-13818
icely	-13819
llity	-13820
ority	-13821
sward	-13822
▁Born	-13823
▁July	-13824
▁Subt	-13825
▁abre	-13826
▁hale	-13827
▁mose	-13828
▁pref	-13829
▁sage	-13830
▁trop	-13831
better	-13832
icence	-13833
ociate	-13834
otcher	-13835
reshly	-13836
terity	-13837
▁Anger	-13838
▁Dares	-13839
▁Voice	-13840
▁abbot	-13841
▁agile	-13842
▁award	-13843
▁embro	-13844
▁justs	-13845
▁madst	-13846
▁peppe	-13847
▁prope	-13848
▁prose	-13849
▁prost	-13850
▁risen	-13851
▁saith	-13852
▁tripp	-13853
quering	-13854
xterity	-13855
▁Cicely	-13856
▁Edmund	-13857
▁Saying	-13858
▁Subtly	-13859
▁amerce	-13860
▁meanly	-13861
▁trophy	-13862
aspiring	-13863
jectural	-13864
speeding	-13865
uthority	-13866
▁Freshly	-13867
▁abreast	-13868
▁aptness	-13869
▁botcher	-13870
▁decorum	-13871
▁faciant	-13872
▁jollity	-13873
▁prefers	-13874
▁prosely	-13875
▁statute	-13876
▁strives	-13877
▁whereby	-13878
▁Counting	-13879
▁Keepdown	-13880
▁arriving	-13881
▁breather	-13882
▁dissembl	-13883
▁distaffs	-13884
▁distrain	-13885
▁divideth	-13886
▁divinest	-13887
▁doomsday	-13888
▁dumbness	-13889
▁eighteen	-13890
▁eloquent	-13891
▁empoison	-13892
▁enclosed	-13893
▁enduring	-13894
▁entirely	-13895
▁epitaphs	-13896
▁evermore	-13897
▁exacting	-13898
▁expiring	-13899
div	-13900
zel	-13901
Look	-13902
deep	-13903
dure	-13904
gawd	-13905
isel	-13906
name	-13907
oves	-13908
renz	-13909
uish	-13910
▁Cho	-13911
▁gig	-13912
▁hug	-13913
▁jet	-13914
eaves	-13915
elous	-13916
eties	-13917
purse	-13918
renzy	-13919
▁Hook	-13920
▁Sole	-13921
▁Took	-13922
▁gigl	-13923
▁jour	-13924
▁nook	-13925
▁quen	-13926
▁rebu	-13927
▁tick	-13928
Simois	-13929
gawded	-13930
petual	-13931
reator	-13932
▁Stain	-13933
▁Start	-13934
▁allig	-13935
▁fairy	-13936
▁havoc	-13937
▁lozel	-13938
▁rumou	-13939
▁unbur	-13940
omeness	-13941
utelous	-13942
▁Choler	-13943
▁badest	-13944
▁chisel	-13945
▁frenzy	-13946
▁hearty	-13947
▁leases	-13948
▁manure	-13949
▁priore	-13950
▁surges	-13951
bedience	-13952
divining	-13953
someness	-13954
▁Creator	-13955
▁Hooking	-13956
▁Torment	-13957
▁Whereat	-13958
▁adheres	-13959
▁cleanly	-13960
▁giglots	-13961
▁hearten	-13962
▁nations	-13963
▁rebukes	-13964
▁removes	-13965
▁taunted	-13966
▁unburnt	-13967
▁verdure	-13968
▁whatsoe	-13969
negligent	-13970
▁Purchase	-13971
▁conserve	-13972
▁factions	-13973
▁falconer	-13974
▁fatigate	-13975
▁feathers	-13976
▁federary	-13977
▁feebling	-13978
▁ferryman	-13979
▁figuring	-13980
▁finished	-13981
▁flatness	-13982
▁fleeting	-13983
▁flowered	-13984
▁forcible	-13985
▁forecast	-13986
▁forefend	-13987
▁forenoon	-13988
▁forgiven	-13989
▁freedoms	-13990
▁freelier	-13991
▁gainsays	-13992
▁gamesome	-13993
▁glisters	-13994
▁gnarling	-13995
▁goodlier	-13996
▁gossamer	-13997
▁grinning	-13998
▁grudging	-13999
ppa	-14000
bbit	-14001
hipp	-14002
mate	-14003
ndar	-14004
ondu	-14005
orst	-14006
orus	-14007
rapp	-14008
▁Tro	-14009
▁Yon	-14010
▁hog	-14011
▁que	-14012
▁swo	-14013
▁unr	-14014
ARDEN	-14015
build	-14016
chequ	-14017
condu	-14018
ecost	-14019
eeded	-14020
hippe	-14021
odest	-14022
rippa	-14023
▁Bond	-14024
▁Fate	-14025
▁Hall	-14026
▁Lawn	-14027
▁cutt	-14028
▁edif	-14029
▁enra	-14030
▁lopp	-14031
▁lull	-14032
▁mate	-14033
▁opin	-14034
▁slop	-14035
▁unqu	-14036
▁usur	-14037
▁wren	-14038
alling	-14039
amazed	-14040
estate	-14041
needed	-14042
raymen	-14043
ressel	-14044
ummate	-14045
versed	-14046
▁Barth	-14047
▁Craft	-14048
▁Grant	-14049
▁Rouse	-14050
▁Seest	-14051
▁Tends	-14052
▁Troil	-14053
▁Whipp	-14054
▁Worst	-14055
▁Wrapp	-14056
▁arrow	-14057
▁cours	-14058
▁foren	-14059
▁hares	-14060
▁queas	-14061
▁refus	-14062
▁unhop	-14063
▁unroo	-14064
▁wrens	-14065
ARDENER	-14066
alendar	-14067
chequed	-14068
leather	-14069
pective	-14070
▁Chorus	-14071
▁Repeal	-14072
▁arbitr	-14073
▁holier	-14074
▁linens	-14075
▁marked	-14076
▁rabbit	-14077
▁swoons	-14078
anthippe	-14079
building	-14080
▁Agrippa	-14081
▁Barthol	-14082
▁Bondage	-14083
▁Depress	-14084
▁Sailing	-14085
▁Tressel	-14086
▁Troilus	-14087
▁dallies	-14088
▁differs	-14089
▁draymen	-14090
▁drybeat	-14091
▁enraged	-14092
▁imagery	-14093
▁lullaby	-14094
▁pouring	-14095
▁refusal	-14096
▁surgeon	-14097
▁unhoped	-14098
▁unroost	-14099
aol	-14100
auf	-14101
▁ju	-14102
Wind	-14103
dost	-14104
foes	-14105
mout	-14106
oric	-14107
oult	-14108
rann	-14109
▁Hec	-14110
▁Hew	-14111
▁Hol	-14112
aufry	-14113
inder	-14114
plant	-14115
toric	-14116
▁Fled	-14117
▁Heat	-14118
▁Seem	-14119
▁bags	-14120
▁gout	-14121
▁hats	-14122
▁hest	-14123
▁jugs	-14124
▁lout	-14125
▁robs	-14126
▁tool	-14127
allant	-14128
▁Hecub	-14129
▁Preys	-14130
▁Whoop	-14131
▁hests	-14132
▁patch	-14133
▁poult	-14134
▁unear	-14135
▁wails	-14136
elieved	-14137
ernible	-14138
gallant	-14139
imaufry	-14140
iterate	-14141
itively	-14142
mouthed	-14143
▁Hecuba	-14144
▁Tyrann	-14145
▁alarms	-14146
▁engaol	-14147
▁perils	-14148
▁pheeze	-14149
▁sicker	-14150
▁tinder	-14151
alicious	-14152
sitively	-14153
upturned	-14154
▁Gallows	-14155
▁Holborn	-14156
▁courted	-14157
▁defiled	-14158
▁showest	-14159
▁stoutly	-14160
▁unearth	-14161
warranted	-14162
▁Displant	-14163
▁GARDENER	-14164
▁Speakest	-14165
▁bereaves	-14166
▁calendar	-14167
▁coursers	-14168
▁fortress	-14169
▁happened	-14170
▁harlotry	-14171
▁hatching	-14172
▁heighten	-14173
▁herdsman	-14174
▁heretics	-14175
▁hoarding	-14176
▁honorato	-14177
▁hostages	-14178
▁hovering	-14179
▁humanely	-14180
▁husewife	-14181
▁hypocris	-14182
▁idleness	-14183
▁immodest	-14184
▁imposter	-14185
▁impotent	-14186
▁industry	-14187
▁inherits	-14188
▁inspired	-14189
▁invested	-14190
▁jaunting	-14191
▁journeys	-14192
▁kitchens	-14193
▁lavender	-14194
▁magician	-14195
▁manifold	-14196
▁marcheth	-14197
▁marjoram	-14198
▁masquing	-14199
emy	-14200
uma	-14201
atry	-14202
bler	-14203
bone	-14204
cter	-14205
dong	-14206
eban	-14207
emir	-14208
emon	-14209
even	-14210
icut	-14211
kein	-14212
mish	-14213
odor	-14214
▁Cic	-14215
▁Hic	-14216
▁aub	-14217
▁gem	-14218
▁hic	-14219
▁mic	-14220
▁myr	-14221
ebank	-14222
enemy	-14223
▁Bend	-14224
▁Dive	-14225
▁Feed	-14226
▁Inch	-14227
▁Numa	-14228
▁Ties	-14229
▁amid	-14230
▁atom	-14231
▁gems	-14232
▁goat	-14233
▁mann	-14234
▁mans	-14235
▁proc	-14236
▁spic	-14237
emiram	-14238
fecter	-14239
icutic	-14240
lemish	-14241
lipsed	-14242
odemon	-14243
olatry	-14244
onging	-14245
▁boxes	-14246
▁goble	-14247
▁lames	-14248
▁micro	-14249
▁skein	-14250
▁surge	-14251
clipsed	-14252
dispers	-14253
itulate	-14254
perform	-14255
racting	-14256
▁Awakes	-14257
▁Uneven	-14258
▁auburn	-14259
▁billet	-14260
▁lining	-14261
▁microc	-14262
▁myrtle	-14263
▁oftent	-14264
▁orient	-14265
▁portal	-14266
▁safest	-14267
▁trance	-14268
▁unkiss	-14269
acodemon	-14270
emiramis	-14271
icipline	-14272
iricutic	-14273
▁Blemish	-14274
▁Strives	-14275
▁atomies	-14276
▁bawcock	-14277
▁goblets	-14278
▁humbler	-14279
▁nostril	-14280
▁spicery	-14281
▁strings	-14282
▁trebles	-14283
▁whereat	-14284
▁Cicester	-14285
▁Cushions	-14286
▁billeted	-14287
▁eclipsed	-14288
▁idolatry	-14289
▁meddling	-14290
▁meekness	-14291
▁meetings	-14292
▁messages	-14293
▁microcos	-14294
▁milkmaid	-14295
▁milliner	-14296
▁mingling	-14297
▁miracles	-14298
▁mirthful	-14299
URS	-14300
psy	-14301
▁La	-14302
▁PH	-14303
Fine	-14304
URSE	-14305
loss	-14306
ntly	-14307
ruck	-14308
umbl	-14309
zure	-14310
▁bor	-14311
▁gos	-14312
▁row	-14313
▁upl	-14314
amemn	-14315
onimy	-14316
start	-14317
▁Crow	-14318
▁Wine	-14319
▁flex	-14320
▁spru	-14321
▁unan	-14322
lossom	-14323
rowess	-14324
rowing	-14325
▁Crowd	-14326
▁NURSE	-14327
▁PHILI	-14328
▁comed	-14329
▁gipsy	-14330
▁heath	-14331
▁sects	-14332
▁smote	-14333
amemnon	-14334
aphysic	-14335
growing	-14336
horsing	-14337
umblest	-14338
▁Fouler	-14339
▁PHILIP	-14340
▁Recoil	-14341
▁Struck	-14342
▁Wedges	-14343
▁bating	-14344
▁boiled	-14345
▁boring	-14346
▁comedy	-14347
▁lanced	-14348
▁razure	-14349
▁settle	-14350
▁spruce	-14351
▁uplift	-14352
aphysics	-14353
odations	-14354
▁Blossom	-14355
▁escapes	-14356
▁feature	-14357
▁gosling	-14358
▁prowess	-14359
▁smatter	-14360
▁snapper	-14361
▁unmanly	-14362
▁upstart	-14363
modations	-14364
sorrowing	-14365
▁Chaplain	-14366
▁Gracious	-14367
▁Jeronimy	-14368
▁cardinal	-14369
▁chancell	-14370
▁flexible	-14371
▁miscarry	-14372
▁misdeeds	-14373
▁mitigate	-14374
▁muscadel	-14375
▁mutiners	-14376
▁necklace	-14377
▁nuptials	-14378
▁nutshell	-14379
▁observed	-14380
▁observer	-14381
▁official	-14382
▁opportun	-14383
▁ordained	-14384
▁outdares	-14385
▁outgrown	-14386
▁outrages	-14387
▁outstrip	-14388
▁overflow	-14389
▁overgone	-14390
▁overmuch	-14391
▁overpeer	-14392
▁overtake	-14393
▁paramour	-14394
▁particul	-14395
▁perilous	-14396
▁physical	-14397
▁picklock	-14398
▁pittance	-14399
ERV	-14400
cit	-14401
dic	-14402
gon	-14403
vul	-14404
▁Dr	-14405
asta	-14406
elsa	-14407
kine	-14408
olas	-14409
ulse	-14410
when	-14411
▁FOR	-14412
▁Wol	-14413
▁ber	-14414
▁kil	-14415
▁peg	-14416
▁upb	-14417
cerns	-14418
estor	-14419
stall	-14420
▁Port	-14421
▁SERV	-14422
▁Wast	-14423
▁dice	-14424
▁goal	-14425
▁kiln	-14426
▁mall	-14427
▁mant	-14428
cholas	-14429
ightst	-14430
unjust	-14431
vulner	-14432
▁Basta	-14433
▁Betid	-14434
▁Drink	-14435
▁Fight	-14436
▁Stony	-14437
▁agent	-14438
▁brisk	-14439
▁celsa	-14440
▁facit	-14441
▁kinds	-14442
▁laced	-14443
▁quant	-14444
▁tames	-14445
▁unbra	-14446
▁upbra	-14447
▁waged	-14448
icholas	-14449
mightst	-14450
rovided	-14451
▁Fights	-14452
▁Gallop	-14453
▁German	-14454
▁Nestor	-14455
▁Raised	-14456
▁Supply	-14457
▁Wolves	-14458
▁helper	-14459
▁instit	-14460
▁predic	-14461
▁refell	-14462
▁waggon	-14463
▁warped	-14464
iguities	-14465
provided	-14466
sickness	-14467
▁Betroth	-14468
▁Germans	-14469
▁Partake	-14470
▁SERVING	-14471
▁berries	-14472
▁joyless	-14473
▁mallows	-14474
▁mantled	-14475
▁miscall	-14476
▁quitted	-14477
▁repulse	-14478
▁vapours	-14479
▁Drinking	-14480
▁Nicholas	-14481
▁Penelope	-14482
▁coldness	-14483
▁plaining	-14484
▁planched	-14485
▁pleaders	-14486
▁porridge	-14487
▁portance	-14488
▁poultice	-14489
▁powdered	-14490
▁precepts	-14491
▁prefixed	-14492
▁presages	-14493
▁presumpt	-14494
▁prioress	-14495
▁procured	-14496
▁procures	-14497
▁profaned	-14498
▁prognost	-14499
':	-14500
oni	-14501
▁Io	-14502
▁va	-14503
That	-14504
from	-14505
hole	-14506
holy	-14507
nell	-14508
vets	-14509
year	-14510
▁Got	-14511
▁pho	-14512
▁til	-14513
eaded	-14514
eller	-14515
illoa	-14516
llens	-14517
mance	-14518
merry	-14519
olumn	-14520
shipp	-14521
▁Bina	-14522
▁Head	-14523
▁Lent	-14524
▁Prom	-14525
▁Wind	-14526
▁beth	-14527
▁poni	-14528
almost	-14529
hinged	-14530
llowed	-14531
▁Alive	-14532
▁Flint	-14533
▁Sooth	-14534
▁Windy	-14535
▁adage	-14536
▁debat	-14537
▁phoen	-14538
▁plats	-14539
▁rainy	-14540
▁unbar	-14541
lflocks	-14542
olumnia	-14543
othered	-14544
pernell	-14545
▁Beauty	-14546
▁Binaca	-14547
▁Hilloa	-14548
▁Pierce	-14549
▁attire	-14550
▁bearts	-14551
▁covets	-14552
▁pushes	-14553
▁shares	-14554
▁spoons	-14555
▁termed	-14556
▁tilter	-14557
▁unholy	-14558
▁vaward	-14559
formance	-14560
▁Commune	-14561
▁cozened	-14562
▁invited	-14563
▁kneaded	-14564
▁phoenix	-14565
▁prelate	-14566
▁sullens	-14567
▁thereat	-14568
▁wildest	-14569
impernell	-14570
▁Volumnia	-14571
▁bulwarks	-14572
▁crueller	-14573
▁elflocks	-14574
▁hallowed	-14575
▁poniards	-14576
▁privileg	-14577
▁projects	-14578
▁prompter	-14579
▁properer	-14580
▁proselyt	-14581
▁proverbs	-14582
▁provokes	-14583
▁punishes	-14584
▁quaintly	-14585
▁quantity	-14586
▁quenched	-14587
▁rarities	-14588
▁rattling	-14589
▁ravenous	-14590
▁reacheth	-14591
▁recourse	-14592
▁recovery	-14593
▁regarded	-14594
▁relieved	-14595
▁relished	-14596
▁replying	-14597
▁rescuing	-14598
▁resemble	-14599
ht	-14600
Mar	-14601
fru	-14602
akef	-14603
epht	-14604
vies	-14605
▁Age	-14606
▁Hot	-14607
▁Som	-14608
▁suf	-14609
aways	-14610
blins	-14611
known	-14612
lague	-14613
ribut	-14614
vaunt	-14615
▁Asso	-14616
▁Dine	-14617
▁Fame	-14618
▁Tear	-14619
▁Weak	-14620
▁cand	-14621
▁curd	-14622
▁cust	-14623
▁fist	-14624
▁herb	-14625
▁loam	-14626
▁loan	-14627
▁muck	-14628
▁punt	-14629
▁saff	-14630
▁stif	-14631
▁toge	-14632
Plague	-14633
ephtha	-14634
ertake	-14635
fruits	-14636
ighted	-14637
iscate	-14638
oubled	-14639
ousing	-14640
rising	-14641
▁CAIUS	-14642
▁Joint	-14643
▁Wakef	-14644
▁filed	-14645
▁mater	-14646
▁prest	-14647
▁props	-14648
▁punto	-14649
▁tying	-14650
ephthah	-14651
vouched	-14652
▁Associ	-14653
▁Avaunt	-14654
▁Dazzle	-14655
▁Labour	-14656
▁Somerv	-14657
▁belock	-14658
▁blazon	-14659
▁bodged	-14660
▁comely	-14661
▁conies	-14662
▁lenten	-14663
▁levies	-14664
▁moated	-14665
▁recure	-14666
[...]
